<unk>	0
<s>	0
</s>	0
▁t	-0
▁a	-1
he	-2
in	-3
▁the	-4
00	-5
er	-6
▁s	-7
on	-8
▁c	-9
re	-10
▁o	-11
▁w	-12
is	-13
an	-14
▁in	-15
ed	-16
▁f	-17
▁b	-18
or	-19
at	-20
en	-21
it	-22
▁p	-23
ar	-24
al	-25
▁of	-26
▁00	-27
▁m	-28
▁an	-29
as	-30
es	-31
▁and	-32
▁d	-33
ic	-34
ro	-35
▁h	-36
▁0000	-37
ing	-38
▁l	-39
ion	-40
▁to	-41
il	-42
un	-43
▁n	-44
▁is	-45
am	-46
le	-47
▁g	-48
▁re	-49
us	-50
▁was	-51
ent	-52
ur	-53
▁co	-54
el	-55
▁he	-56
▁e	-57
▁on	-58
ut	-59
ad	-60
ol	-61
st	-62
ac	-63
▁st	-64
et	-65
iv	-66
▁for	-67
▁(	-68
▁"	-69
ec	-70
ay	-71
ation	-72
▁th	-73
▁as	-74
ir	-75
▁r	-76
id	-77
▁it	-78
ist	-79
ly	-80
ot	-81
ig	-82
▁j	-83
ch	-84
▁v	-85
▁al	-86
em	-87
▁k	-88
ers	-89
ow	-90
▁at	-91
▁by	-92
ul	-93
im	-94
and	-95
ith	-96
ag	-97
ter	-98
rom	-99
ct	-100
▁with	-101
om	-102
▁ch	-103
um	-104
ce	-105
▁0	-106
▁com	-107
▁wh	-108
▁un	-109
▁be	-110
▁from	-111
▁con	-112
th	-113
est	-114
ain	-115
ber	-116
os	-117
oc	-118
ia	-119
ian	-120
▁pro	-121
▁0000.	-122
▁pl	-123
her	-124
ies	-125
all	-126
▁se	-127
art	-128
▁de	-129
ver	-130
ip	-131
op	-132
ill	-133
ity	-134
▁0000,	-135
▁his	-136
ud	-137
ub	-138
ab	-139
av	-140
ated	-141
ap	-142
ug	-143
up	-144
res	-145
▁y	-146
▁fo	-147
ate	-148
▁or	-149
▁ne	-150
▁sp	-151
▁mo	-152
▁are	-153
▁ro	-154
if	-155
▁le	-156
ak	-157
ard	-158
und	-159
ri	-160
ich	-161
qu	-162
ort	-163
out	-164
ary	-165
od	-166
ast	-167
igh	-168
▁ar	-169
so	-170
ish	-171
ame	-172
ge	-173
ong	-174
▁that	-175
ess	-176
▁tr	-177
ric	-178
ant	-179
ive	-180
▁sh	-181
▁comp	-182
mer	-183
ear	-184
ous	-185
▁en	-186
ire	-187
orn	-188
ord	-189
ell	-190
▁play	-191
ine	-192
unt	-193
▁has	-194
▁cl	-195
ust	-196
uc	-197
▁also	-198
▁wor	-199
▁te	-200
ov	-201
ie	-202
▁ex	-203
ember	-204
▁mar	-205
▁ser	-206
▁ap	-207
age	-208
ial	-209
cl	-210
▁af	-211
▁fir	-212
ment	-213
der	-214
▁which	-215
ere	-216
▁000	-217
ect	-218
▁br	-219
▁first	-220
ions	-221
og	-222
ue	-223
▁part	-224
ure	-225
land	-226
ld	-227
▁new	-228
ugh	-229
ren	-230
0000	-231
▁were	-232
▁she	-233
ational	-234
▁its	-235
▁ad	-236
ack	-237
▁00,	-238
ical	-239
▁sc	-240
ore	-241
▁this	-242
▁col	-243
wn	-244
ra	-245
man	-246
own	-247
▁whe	-248
▁tw	-249
ok	-250
▁comm	-251
hed	-252
amp	-253
se	-254
ight	-255
▁dist	-256
lect	-257
fer	-258
ond	-259
▁one	-260
are	-261
ass	-262
▁bo	-263
ry	-264
end	-265
▁man	-266
▁us	-267
▁who	-268
▁ac	-269
ang	-270
▁ind	-271
▁count	-272
▁sch	-273
▁loc	-274
ign	-275
ide	-276
▁jo	-277
ice	-278
",	-279
tern	-280
ach	-281
clud	-282
▁sout	-283
ree	-284
urn	-285
▁rec	-286
▁may	-287
▁year	-288
iz	-289
),	-290
per	-291
▁after	-292
).	-293
▁app	-294
▁cont	-295
▁ab	-296
ther	-297
ts	-298
ased	-299
▁her	-300
▁fe	-301
ool	-302
▁res	-303
000	-304
▁rep	-305
▁includ	-306
ater	-307
ball	-308
▁not	-309
▁nor	-310
".	-311
▁two	-312
ans	-313
ens	-314
ubl	-315
low	-316
▁pr	-317
hip	-318
ail	-319
br	-320
▁serv	-321
pt	-322
ome	-323
ivers	-324
▁can	-325
ey	-326
ace	-327
▁par	-328
▁gr	-329
ition	-330
amil	-331
▁per	-332
te	-333
▁had	-334
▁cent	-335
▁distric	-336
ave	-337
ates	-338
inal	-339
ited	-340
to	-341
▁reg	-342
▁fil	-343
ik	-344
▁ag	-345
io	-346
▁school	-347
▁go	-348
▁kn	-349
ied	-350
▁0000)	-351
▁team	-352
▁but	-353
▁work	-354
ason	-355
we	-356
▁district	-357
ory	-358
▁des	-359
ild	-360
ral	-361
aw	-362
▁mus	-363
uring	-364
▁alb	-365
▁bu	-366
▁their	-367
ade	-368
▁univers	-369
▁ed	-370
▁all	-371
▁bec	-372
▁film	-373
▁spec	-374
▁fr	-375
▁pol	-376
ican	-377
▁south	-378
ib	-379
▁0,	-380
▁national	-381
rit	-382
les	-383
ward	-384
▁gro	-385
▁po	-386
▁sec	-387
ime	-388
▁famil	-389
uct	-390
act	-391
▁gen	-392
ince	-393
ton	-394
▁found	-395
ance	-396
▁foot	-397
▁been	-398
old	-399
▁pre	-400
ult	-401
▁ass	-402
ations	-403
▁pop	-404
ence	-405
az	-406
the	-407
▁album	-408
▁university	-409
uary	-410
▁amer	-411
▁season	-412
▁so	-413
▁vill	-414
ite	-415
ished	-416
▁rele	-417
▁they	-418
▁north	-419
ah	-420
▁qu	-421
ff	-422
▁off	-423
▁other	-424
for	-425
▁act	-426
▁bro	-427
ath	-428
▁eng	-429
▁county	-430
▁(0000	-431
way	-432
▁up	-433
▁football	-434
▁elect	-435
▁ph	-436
iss	-437
▁pres	-438
▁known	-439
▁played	-440
▁z	-441
▁dec	-442
▁during	-443
▁me	-444
ings	-445
▁world	-446
▁stud	-447
rop	-448
ely	-449
ted	-450
lo	-451
▁record	-452
▁publ	-453
▁car	-454
anc	-455
vent	-456
hn	-457
▁fol	-458
▁have	-459
▁sing	-460
port	-461
ual	-462
▁min	-463
ics	-464
▁pe	-465
▁prov	-466
born	-467
▁popul	-468
▁family	-469
▁am	-470
▁there	-471
▁i	-472
ae	-473
▁bet	-474
ague	-475
ile	-476
rib	-477
▁located	-478
gan	-479
ional	-480
▁win	-481
▁under	-482
▁village	-483
ors	-484
ative	-485
▁state	-486
▁over	-487
ision	-488
▁hous	-489
▁med	-490
▁prod	-491
▁town	-492
▁united	-493
vel	-494
▁form	-495
▁cons	-496
▁follow	-497
ase	-498
▁out	-499
oth	-500
▁bl	-501
ank	-502
.0	-503
▁city	-504
▁gre	-505
▁sub	-506
▁champ	-507
▁mon	-508
able	-509
▁american	-510
ina	-511
▁high	-512
ames	-513
one	-514
▁where	-515
▁dis	-516
ep	-517
▁second	-518
▁im	-519
▁sy	-520
▁when	-521
irect	-522
▁league	-523
uch	-524
co	-525
sh	-526
ork	-527
▁born	-528
▁ear	-529
une	-530
che	-531
▁name	-532
▁years	-533
ick	-534
▁op	-535
ier	-536
▁ma	-537
iver	-538
iel	-539
▁nov	-540
ft	-541
ake	-542
▁we	-543
ix	-544
▁into	-545
mp	-546
▁direct	-547
▁art	-548
▁refer	-549
▁song	-550
▁three	-551
▁lo	-552
ween	-553
▁released	-554
▁hist	-555
▁won	-556
▁club	-557
▁between	-558
▁most	-559
eral	-560
▁war	-561
enc	-562
red	-563
▁u	-564
olog	-565
ident	-566
▁dr	-567
▁fin	-568
▁species	-569
▁cur	-570
son	-571
▁ret	-572
▁music	-573
ved	-574
▁states	-575
bo	-576
▁time	-577
▁sup	-578
▁do	-579
unc	-580
gr	-581
oci	-582
▁will	-583
▁–	-584
ious	-585
▁gu	-586
ne	-587
▁four	-588
▁cap	-589
▁sm	-590
▁award	-591
rent	-592
ten	-593
▁aust	-594
▁station	-595
ress	-596
▁prof	-597
▁made	-598
▁list	-599
icip	-600
▁champions	-601
▁only	-602
▁area	-603
▁met	-604
▁compet	-605
▁dep	-606
ley	-607
▁mat	-608
▁jan	-609
▁att	-610
any	-611
ock	-612
ung	-613
▁later	-614
▁population	-615
▁thro	-616
ons	-617
ural	-618
▁house	-619
▁member	-620
▁group	-621
▁became	-622
form	-623
iam	-624
▁west	-625
ose	-626
amed	-627
▁num	-628
▁again	-629
ents	-630
ale	-631
▁bar	-632
air	-633
▁air	-634
▁end	-635
▁char	-636
til	-637
▁wo	-638
▁no	-639
ict	-640
min	-641
ived	-642
▁acc	-643
▁div	-644
▁writ	-645
str	-646
▁ent	-647
▁est	-648
▁profess	-649
emb	-650
▁former	-651
▁about	-652
▁following	-653
fore	-654
▁colle	-655
ve	-656
▁ju	-657
ann	-658
uld	-659
▁ger	-660
▁then	-661
▁through	-662
enn	-663
▁intern	-664
ket	-665
▁lar	-666
als	-667
▁until	-668
▁sw	-669
▁bel	-670
▁fl	-671
ute	-672
▁used	-673
▁main	-674
▁ter	-675
▁inter	-676
▁def	-677
▁championship	-678
▁ge	-679
▁trans	-680
ury	-681
vern	-682
▁some	-683
▁band	-684
ating	-685
hern	-686
ss	-687
▁more	-688
▁well	-689
urch	-690
▁river	-691
pl	-692
▁cre	-693
▁orig	-694
ven	-695
ugust	-696
by	-697
▁event	-698
▁str	-699
▁since	-700
ough	-701
▁series	-702
int	-703
ai	-704
stit	-705
ery	-706
ister	-707
▁march	-708
▁john	-709
▁before	-710
ph	-711
▁served	-712
▁feat	-713
▁commun	-714
▁college	-715
▁oper	-716
ost	-717
▁set	-718
▁repres	-719
ck	-720
▁la	-721
▁august	-722
▁current	-723
▁company	-724
▁el	-725
▁including	-726
ind	-727
▁east	-728
▁austral	-729
▁sur	-730
▁build	-731
▁january	-732
ril	-733
ield	-734
▁german	-735
ities	-736
ptember	-737
▁govern	-738
round	-739
▁rem	-740
▁call	-741
ife	-742
▁ir	-743
▁rel	-744
ober	-745
▁july	-746
inc	-747
sp	-748
▁oct	-749
ople	-750
ific	-751
▁mun	-752
ilt	-753
▁june	-754
our	-755
igned	-756
▁international	-757
tle	-758
▁september	-759
▁run	-760
ains	-761
let	-762
ll	-763
▁held	-764
ese	-765
ired	-766
▁open	-767
ke	-768
▁rom	-769
ality	-770
▁him	-771
▁represent	-772
ins	-773
ures	-774
▁people	-775
uss	-776
▁many	-777
▁final	-778
–00	-779
▁october	-780
▁named	-781
ning	-782
ys	-783
▁april	-784
▁rece	-785
ular	-786
▁cal	-787
▁own	-788
▁brit	-789
▁long	-790
▁number	-791
▁show	-792
eng	-793
velop	-794
▁sever	-795
ium	-796
cess	-797
▁start	-798
▁book	-799
▁tit	-800
-00	-801
▁november	-802
▁aut	-803
ement	-804
ird	-805
ized	-806
▁canad	-807
▁near	-808
▁head	-809
ital	-810
ty	-811
▁island	-812
▁care	-813
ists	-814
lev	-815
▁york	-816
▁var	-817
ner	-818
▁being	-819
▁december	-820
▁both	-821
▁such	-822
ather	-823
▁ann	-824
ica	-825
▁histor	-826
▁church	-827
▁against	-828
▁develop	-829
▁inc	-830
ior	-831
▁best	-832
its	-833
▁produc	-834
ined	-835
▁how	-836
▁while	-837
urg	-838
lish	-839
bruary	-840
▁cr	-841
▁original	-842
de	-843
▁eu	-844
▁lead	-845
▁yo	-846
▁park	-847
▁several	-848
hy	-849
▁municip	-850
ained	-851
ull	-852
ark	-853
af	-854
▁desc	-855
cc	-856
ert	-857
ash	-858
▁single	-859
au	-860
▁-	-861
▁polit	-862
ject	-863
ike	-864
▁add	-865
ont	-866
▁general	-867
▁sum	-868
▁mil	-869
▁mid	-870
idae	-871
▁games	-872
▁offic	-873
▁associ	-874
▁small	-875
▁built	-876
ales	-877
▁public	-878
▁died	-879
ek	-880
▁bas	-881
▁february	-882
▁cro	-883
▁province	-884
▁port	-885
▁wom	-886
ried	-887
por	-888
▁bus	-889
▁sl	-890
▁rail	-891
aus	-892
▁arm	-893
me	-894
▁party	-895
▁deb	-896
▁place	-897
▁exp	-898
▁star	-899
▁than	-900
▁che	-901
▁class	-902
▁cor	-903
uction	-904
▁pos	-905
▁nort	-906
▁cour	-907
▁road	-908
▁top	-909
▁son	-910
▁stre	-911
.00	-912
▁organ	-913
▁inv	-914
rap	-915
ood	-916
▁har	-917
▁land	-918
yp	-919
▁day	-920
▁include	-921
estern	-922
▁maj	-923
yl	-924
▁line	-925
iew	-926
▁cup	-927
▁based	-928
ham	-929
▁rev	-930
ives	-931
▁central	-932
▁called	-933
▁division	-934
▁ob	-935
▁home	-936
ower	-937
▁()	-938
ise	-939
▁king	-940
▁ext	-941
▁professional	-942
▁british	-943
▁suc	-944
ange	-945
ster	-946
▁sim	-947
na	-948
▁int	-949
ean	-950
imes	-951
▁mount	-952
."	-953
stem	-954
fl	-955
▁rad	-956
▁child	-957
▁player	-958
▁pa	-959
▁val	-960
▁local	-961
▁arch	-962
▁oly	-963
▁along	-964
▁europ	-965
gram	-966
▁law	-967
▁chr	-968
ology	-969
▁career	-970
▁within	-971
erv	-972
led	-973
")	-974
ared	-975
▁mag	-976
sk	-977
▁each	-978
▁published	-979
ensus	-980
ze	-981
▁pri	-982
▁olymp	-983
▁sk	-984
osed	-985
▁fore	-986
other	-987
▁leg	-988
▁now	-989
▁(00	-990
ured	-991
▁educ	-992
▁early	-993
▁game	-994
▁major	-995
▁0,000	-996
iet	-997
▁census	-998
▁building	-999
▁system	-1000
▁these	-1001
▁er	-1002
▁("	-1003
▁program	-1004
▁lit	-1005
▁sen	-1006
▁president	-1007
ats	-1008
ines	-1009
▁&	-1010
▁debut	-1011
▁red	-1012
▁would	-1013
ient	-1014
▁prom	-1015
bert	-1016
▁age	-1017
▁region	-1018
▁estab	-1019
augh	-1020
▁back	-1021
▁currently	-1022
istr	-1023
ribut	-1024
▁english	-1025
▁li	-1026
han	-1027
▁them	-1028
▁received	-1029
ately	-1030
▁six	-1031
ship	-1032
ille	-1033
▁plac	-1034
ered	-1035
ission	-1036
▁.	-1037
▁government	-1038
tal	-1039
▁em	-1040
▁far	-1041
▁ital	-1042
ford	-1043
▁dem	-1044
▁ep	-1045
▁counc	-1046
ott	-1047
eter	-1048
rench	-1049
hor	-1050
▁ste	-1051
▁roman	-1052
ever	-1053
ually	-1054
▁ii	-1055
▁describ	-1056
▁manag	-1057
▁women	-1058
ants	-1059
▁depart	-1060
▁same	-1061
ival	-1062
uk	-1063
▁appear	-1064
▁track	-1065
gin	-1066
▁geor	-1067
–0	-1068
ended	-1069
▁pat	-1070
-0	-1071
▁community	-1072
▁admin	-1073
adu	-1074
ama	-1075
els	-1076
erson	-1077
▁camp	-1078
▁men	-1079
▁ber	-1080
idge	-1081
–0000	-1082
▁lab	-1083
yn	-1084
▁took	-1085
hen	-1086
ator	-1087
embers	-1088
aj	-1089
ane	-1090
com	-1091
▁began	-1092
,000	-1093
get	-1094
ove	-1095
▁gl	-1096
▁third	-1097
▁post	-1098
▁members	-1099
▁french	-1100
ament	-1101
ob	-1102
▁mill	-1103
▁summer	-1104
day	-1105
-0000	-1106
▁founded	-1107
▁appro	-1108
▁av	-1109
▁dif	-1110
elf	-1111
▁design	-1112
ington	-1113
que	-1114
▁phil	-1115
astern	-1116
▁five	-1117
▁telev	-1118
▁last	-1119
▁comple	-1120
▁mov	-1121
▁bat	-1122
▁council	-1123
▁municipality	-1124
▁occ	-1125
▁rock	-1126
adem	-1127
ony	-1128
▁sa	-1129
▁0000–00	-1130
ino	-1131
ograp	-1132
▁title	-1133
ues	-1134
▁return	-1135
ting	-1136
▁round	-1137
ger	-1138
▁side	-1139
▁short	-1140
▁old	-1141
▁however	-1142
▁bre	-1143
xim	-1144
▁fre	-1145
▁00.0	-1146
iving	-1147
▁ever	-1148
ink	-1149
ful	-1150
▁administr	-1151
iness	-1152
▁pass	-1153
▁country	-1154
burg	-1155
▁department	-1156
xt	-1157
▁director	-1158
aking	-1159
▁genus	-1160
▁indian	-1161
▁hel	-1162
▁mer	-1163
sc	-1164
▁television	-1165
ism	-1166
west	-1167
ages	-1168
▁del	-1169
▁russ	-1170
▁vers	-1171
▁william	-1172
ided	-1173
uck	-1174
▁around	-1175
ches	-1176
hes	-1177
ondon	-1178
ana	-1179
▁just	-1180
ially	-1181
▁'	-1182
▁railway	-1183
▁moved	-1184
aster	-1185
▁ang	-1186
▁san	-1187
▁water	-1188
lished	-1189
apan	-1190
ene	-1191
omet	-1192
▁contin	-1193
aining	-1194
▁century	-1195
▁elected	-1196
▁tec	-1197
yle	-1198
▁sol	-1199
▁married	-1200
▁london	-1201
ices	-1202
▁service	-1203
atic	-1204
▁los	-1205
▁net	-1206
ides	-1207
▁written	-1208
▁instit	-1209
▁england	-1210
▁(0	-1211
▁common	-1212
▁imp	-1213
▁christ	-1214
▁km	-1215
▁western	-1216
▁northern	-1217
▁academ	-1218
ring	-1219
▁soc	-1220
ised	-1221
▁x	-1222
▁established	-1223
▁association	-1224
▁business	-1225
▁street	-1226
ara	-1227
con	-1228
ipp	-1229
▁historic	-1230
▁success	-1231
▁worked	-1232
▁black	-1233
▁afric	-1234
▁described	-1235
▁down	-1236
▁sport	-1237
ata	-1238
▁death	-1239
angu	-1240
▁0.0	-1241
ience	-1242
vers	-1243
▁history	-1244
ored	-1245
▁tourn	-1246
▁mal	-1247
▁election	-1248
ified	-1249
▁fac	-1250
umb	-1251
▁young	-1252
cer	-1253
▁broad	-1254
ron	-1255
▁india	-1256
▁japan	-1257
ible	-1258
▁total	-1259
▁0–0	-1260
▁australia	-1261
ency	-1262
▁included	-1263
▁france	-1264
ection	-1265
▁nat	-1266
▁vol	-1267
▁accord	-1268
ician	-1269
▁vict	-1270
▁gold	-1271
▁present	-1272
▁<	-1273
▁lake	-1274
yal	-1275
▁squ	-1276
inted	-1277
▁children	-1278
ma	-1279
▁joined	-1280
ally	-1281
▁tour	-1282
▁coach	-1283
▁su	-1284
▁left	-1285
▁prev	-1286
▁republ	-1287
▁center	-1288
▁order	-1289
ms	-1290
▁southern	-1291
▁started	-1292
▁stand	-1293
▁teams	-1294
▁life	-1295
work	-1296
▁resear	-1297
omin	-1298
ically	-1299
▁sit	-1300
ret	-1301
▁recorded	-1302
ling	-1303
▁techn	-1304
▁great	-1305
ces	-1306
▁produced	-1307
aving	-1308
▁sil	-1309
▁es	-1310
▁hol	-1311
▁records	-1312
▁hon	-1313
▁dra	-1314
side	-1315
▁collect	-1316
▁gradu	-1317
ula	-1318
▁use	-1319
▁radio	-1320
▁dav	-1321
cent	-1322
iforn	-1323
reek	-1324
ently	-1325
▁grand	-1326
▁ant	-1327
▁differ	-1328
mar	-1329
▁support	-1330
▁00.	-1331
▁cat	-1332
▁field	-1333
▁australian	-1334
▁white	-1335
▁appo	-1336
▁typ	-1337
▁californ	-1338
▁ren	-1339
▁according	-1340
ris	-1341
ays	-1342
▁cast	-1343
▁lat	-1344
▁special	-1345
▁sal	-1346
▁hal	-1347
cept	-1348
▁union	-1349
gest	-1350
▁perform	-1351
▁vo	-1352
▁california	-1353
▁tre	-1354
aint	-1355
ution	-1356
▁,	-1357
ha	-1358
▁sign	-1359
ety	-1360
ville	-1361
▁playing	-1362
itions	-1363
▁mod	-1364
▁tur	-1365
▁journ	-1366
ause	-1367
▁pal	-1368
ief	-1369
▁father	-1370
▁brother	-1371
▁previous	-1372
▁tournament	-1373
ico	-1374
▁due	-1375
▁canada	-1376
▁office	-1377
ued	-1378
app	-1379
amb	-1380
▁olympics	-1381
ax	-1382
cast	-1383
▁uk	-1384
▁my	-1385
▁times	-1386
ka	-1387
▁level	-1388
▁constr	-1389
▁appe	-1390
▁project	-1391
▁vis	-1392
▁author	-1393
▁directed	-1394
▁did	-1395
▁soci	-1396
▁prim	-1397
▁hen	-1398
▁rural	-1399
▁large	-1400
▁que	-1401
▁langu	-1402
▁rest	-1403
▁championships	-1404
▁like	-1405
▁week	-1406
▁conn	-1407
bs	-1408
ments	-1409
▁fem	-1410
ca	-1411
▁engine	-1412
▁competed	-1413
▁works	-1414
▁resp	-1415
iod	-1416
▁hill	-1417
▁base	-1418
▁plays	-1419
go	-1420
▁adv	-1421
▁ol	-1422
▁bank	-1423
iven	-1424
▁emp	-1425
▁any	-1426
▁mor	-1427
urs	-1428
▁right	-1429
ets	-1430
▁among	-1431
▁rac	-1432
▁medal	-1433
akes	-1434
ellow	-1435
outh	-1436
▁research	-1437
ract	-1438
▁vide	-1439
ta	-1440
shire	-1441
▁hum	-1442
alk	-1443
ee	-1444
▁sn	-1445
la	-1446
▁ref	-1447
▁chart	-1448
▁nav	-1449
▁vir	-1450
ho	-1451
▁created	-1452
ones	-1453
▁royal	-1454
lin	-1455
▁site	-1456
uis	-1457
▁cover	-1458
▁late	-1459
▁fed	-1460
▁flow	-1461
ument	-1462
ility	-1463
▁bur	-1464
alth	-1465
▁approxim	-1466
odes	-1467
▁daugh	-1468
▁germany	-1469
▁mich	-1470
ania	-1471
▁promot	-1472
▁hall	-1473
▁european	-1474
par	-1475
▁listed	-1476
aff	-1477
ij	-1478
be	-1479
▁00,000	-1480
med	-1481
▁stat	-1482
▁development	-1483
▁canadian	-1484
itor	-1485
▁songs	-1486
▁tem	-1487
ler	-1488
unct	-1489
▁fest	-1490
▁originally	-1491
▁addition	-1492
ye	-1493
▁trad	-1494
▁non	-1495
rod	-1496
▁lim	-1497
gress	-1498
▁appointed	-1499
▁competition	-1500
▁di	-1501
▁board	-1502
▁signed	-1503
▁prem	-1504
▁repl	-1505
ago	-1506
gy	-1507
▁mark	-1508
▁period	-1509
anch	-1510
▁ev	-1511
▁went	-1512
osp	-1513
ya	-1514
▁ra	-1515
▁rich	-1516
▁power	-1517
ged	-1518
▁host	-1519
▁army	-1520
anish	-1521
▁very	-1522
▁ke	-1523
▁hand	-1524
▁education	-1525
epend	-1526
▁(0000–0000	-1527
▁super	-1528
▁du	-1529
isc	-1530
ius	-1531
ively	-1532
▁approximately	-1533
▁$	-1534
▁prot	-1535
▁wood	-1536
▁muse	-1537
▁ill	-1538
▁township	-1539
ily	-1540
▁different	-1541
rol	-1542
▁indust	-1543
▁various	-1544
▁lies	-1545
field	-1546
▁constit	-1547
▁popular	-1548
ering	-1549
▁court	-1550
▁parl	-1551
ization	-1552
ries	-1553
▁opened	-1554
▁ath	-1555
ech	-1556
ple	-1557
ald	-1558
though	-1559
▁defe	-1560
▁particip	-1561
▁cross	-1562
▁appeared	-1563
▁(,	-1564
▁cult	-1565
ney	-1566
▁eff	-1567
ars	-1568
▁politician	-1569
▁thom	-1570
▁another	-1571
bor	-1572
▁aff	-1573
iament	-1574
▁commit	-1575
▁qual	-1576
ences	-1577
▁sold	-1578
▁disc	-1579
▁der	-1580
▁museum	-1581
▁capital	-1582
▁eastern	-1583
▁society	-1584
hel	-1585
▁italian	-1586
▁iran	-1587
▁cond	-1588
▁live	-1589
ected	-1590
ody	-1591
▁hig	-1592
▁independ	-1593
▁ten	-1594
▁sea	-1595
▁parliament	-1596
ps	-1597
▁deg	-1598
▁represented	-1599
▁green	-1600
tr	-1601
▁poland	-1602
▁coast	-1603
▁journal	-1604
▁footballer	-1605
▁although	-1606
ached	-1607
▁includes	-1608
▁minister	-1609
▁consid	-1610
▁academy	-1611
ped	-1612
▁mot	-1613
▁report	-1614
▁given	-1615
▁because	-1616
▁studio	-1617
▁spe	-1618
▁professor	-1619
▁cam	-1620
▁still	-1621
▁events	-1622
▁role	-1623
▁franc	-1624
▁every	-1625
▁=	-1626
▁came	-1627
▁hot	-1628
▁full	-1629
▁finished	-1630
▁bay	-1631
▁james	-1632
▁assemb	-1633
▁plant	-1634
▁turn	-1635
▁places	-1636
▁features	-1637
ards	-1638
▁commission	-1639
▁george	-1640
gen	-1641
▁term	-1642
▁magaz	-1643
▁register	-1644
▁led	-1645
ste	-1646
▁je	-1647
▁vi	-1648
▁video	-1649
dle	-1650
line	-1651
▁mex	-1652
▁civ	-1653
ari	-1654
ocr	-1655
▁don	-1656
ex	-1657
ming	-1658
▁administrative	-1659
▁forest	-1660
ble	-1661
ishop	-1662
▁version	-1663
▁aver	-1664
urb	-1665
▁families	-1666
▁ale	-1667
▁chang	-1668
▁match	-1669
uel	-1670
aced	-1671
▁ce	-1672
ounc	-1673
▁person	-1674
mit	-1675
▁formed	-1676
itary	-1677
▁seat	-1678
▁artist	-1679
▁race	-1680
acter	-1681
ecut	-1682
ander	-1683
▁ele	-1684
▁services	-1685
reg	-1686
▁mc	-1687
▁regional	-1688
▁mass	-1689
▁fif	-1690
ades	-1691
▁miss	-1692
nd	-1693
▁ze	-1694
▁swed	-1695
▁light	-1696
▁equ	-1697
▁brown	-1698
▁sem	-1699
riend	-1700
▁daughter	-1701
ida	-1702
▁moth	-1703
▁00.0%	-1704
▁route	-1705
gian	-1706
▁pet	-1707
abit	-1708
ned	-1709
ston	-1710
▁mart	-1711
▁0.00	-1712
▁vot	-1713
▁if	-1714
row	-1715
▁select	-1716
dom	-1717
ockey	-1718
▁mountain	-1719
▁sho	-1720
itect	-1721
isl	-1722
ught	-1723
▁institute	-1724
▁centre	-1725
▁often	-1726
▁pain	-1727
▁bal	-1728
oll	-1729
▁iss	-1730
▁festival	-1731
mon	-1732
▁republic	-1733
▁basket	-1734
wood	-1735
▁mel	-1736
▁fer	-1737
ots	-1738
▁science	-1739
ou	-1740
▁style	-1741
▁product	-1742
aland	-1743
▁china	-1744
▁paul	-1745
▁way	-1746
▁ly	-1747
▁having	-1748
▁priv	-1749
▁bi	-1750
▁architect	-1751
of	-1752
▁america	-1753
▁import	-1754
▁dev	-1755
▁0.	-1756
▁social	-1757
▁cop	-1758
▁assembly	-1759
▁awarded	-1760
▁story	-1761
▁ver	-1762
▁flo	-1763
▁eight	-1764
▁jos	-1765
▁students	-1766
▁point	-1767
yr	-1768
off	-1769
▁conf	-1770
ature	-1771
▁bord	-1772
nes	-1773
ks	-1774
▁(0000)	-1775
▁cle	-1776
▁q	-1777
▁broadcast	-1778
▁those	-1779
▁returned	-1780
aut	-1781
▁awards	-1782
ani	-1783
▁victor	-1784
▁den	-1785
ize	-1786
ints	-1787
▁wife	-1788
ison	-1789
▁arr	-1790
▁capt	-1791
▁(0000),	-1792
▁official	-1793
▁hy	-1794
▁perfor	-1795
▁language	-1796
ael	-1797
▁films	-1798
▁cir	-1799
▁contains	-1800
ges	-1801
▁political	-1802
▁position	-1803
rote	-1804
aim	-1805
▁though	-1806
▁toget	-1807
▁ve	-1808
▁together	-1809
▁basketball	-1810
▁jud	-1811
ilar	-1812
ett	-1813
▁sports	-1814
▁lost	-1815
▁civil	-1816
berg	-1817
▁mary	-1818
▁confer	-1819
▁mad	-1820
▁democr	-1821
year	-1822
▁announc	-1823
itz	-1824
▁david	-1825
▁surv	-1826
rip	-1827
▁production	-1828
heast	-1829
▁exper	-1830
▁tor	-1831
▁liter	-1832
aper	-1833
uf	-1834
▁big	-1835
▁network	-1836
▁committe	-1837
▁mult	-1838
▁chief	-1839
▁arts	-1840
ances	-1841
eration	-1842
▁magazine	-1843
▁init	-1844
▁det	-1845
▁tv	-1846
▁crit	-1847
▁free	-1848
▁cric	-1849
▁review	-1850
▁rank	-1851
ners	-1852
▁singer	-1853
ians	-1854
▁moder	-1855
▁hockey	-1856
▁coll	-1857
▁average	-1858
▁release	-1859
azil	-1860
▁tex	-1861
▁month	-1862
▁kar	-1863
▁compos	-1864
▁sound	-1865
ength	-1866
▁hold	-1867
rew	-1868
▁highway	-1869
▁proper	-1870
▁studied	-1871
▁designed	-1872
▁notable	-1873
ying	-1874
▁theat	-1875
▁cricket	-1876
▁scott	-1877
ano	-1878
▁inf	-1879
▁mont	-1880
▁athlet	-1881
▁wil	-1882
▁cy	-1883
omb	-1884
▁senior	-1885
▁airport	-1886
▁princ	-1887
▁military	-1888
▁russian	-1889
▁players	-1890
▁retired	-1891
▁wind	-1892
▁ground	-1893
▁make	-1894
▁ship	-1895
▁result	-1896
▁few	-1897
▁invol	-1898
▁sat	-1899
den	-1900
▁valley	-1901
▁half	-1902
ady	-1903
olic	-1904
irl	-1905
har	-1906
▁middle	-1907
▁novel	-1908
▁trav	-1909
raft	-1910
pos	-1911
▁mem	-1912
▁econ	-1913
▁good	-1914
▁assist	-1915
▁grow	-1916
▁situ	-1917
ucted	-1918
hi	-1919
▁mac	-1920
ories	-1921
▁low	-1922
▁market	-1923
▁owned	-1924
▁ben	-1925
tar	-1926
uit	-1927
▁matches	-1928
▁wash	-1929
▁chair	-1930
ending	-1931
▁arg	-1932
ams	-1933
cle	-1934
▁econom	-1935
▁bill	-1936
▁similar	-1937
▁degree	-1938
▁performan	-1939
▁fur	-1940
▁fall	-1941
wards	-1942
▁pit	-1943
ness	-1944
▁native	-1945
▁zealand	-1946
▁surn	-1947
▁books	-1948
orpor	-1949
▁pract	-1950
▁cand	-1951
▁working	-1952
aves	-1953
▁jun	-1954
▁brazil	-1955
▁friend	-1956
▁thomas	-1957
▁secret	-1958
jo	-1959
▁become	-1960
ross	-1961
▁living	-1962
▁0000-0000	-1963
▁seven	-1964
ivid	-1965
▁bridge	-1966
▁bishop	-1967
ola	-1968
▁you	-1969
▁saint	-1970
ireland	-1971
▁next	-1972
ishing	-1973
▁featured	-1974
ological	-1975
▁mur	-1976
▁schools	-1977
▁stad	-1978
▁committee	-1979
ga	-1980
uz	-1981
▁singles	-1982
▁robert	-1983
my	-1984
▁activ	-1985
ode	-1986
▁range	-1987
ude	-1988
wer	-1989
ona	-1990
▁paris	-1991
▁wrote	-1992
▁regular	-1993
▁million	-1994
iding	-1995
▁dut	-1996
ota	-1997
▁kh	-1998
pe	-1999
▁fourth	-2000
oss	-2001
▁much	-2002
▁virgin	-2003
▁surname	-2004
▁sant	-2005
▁hor	-2006
:00	-2007
era	-2008
▁attended	-2009
anded	-2010
▁allow	-2011
ouse	-2012
▁announced	-2013
rick	-2014
tt	-2015
▁fact	-2016
▁character	-2017
▁pan	-2018
▁africa	-2019
▁conference	-2020
wh	-2021
▁cost	-2022
▁test	-2023
▁struct	-2024
▁gm	-2025
▁rug	-2026
ves	-2027
▁00-	-2028
▁individ	-2029
▁inform	-2030
▁europe	-2031
▁legisl	-2032
▁kingdom	-2033
▁charles	-2034
▁earl	-2035
▁00%	-2036
ape	-2037
▁sam	-2038
zy	-2039
cover	-2040
▁000,	-2041
▁washington	-2042
▁0000),	-2043
▁runs	-2044
▁could	-2045
▁tradition	-2046
lands	-2047
▁commer	-2048
att	-2049
▁parish	-2050
hib	-2051
▁natural	-2052
▁cath	-2053
▁phys	-2054
▁gar	-2055
▁real	-2056
ba	-2057
▁dam	-2058
▁fc	-2059
oph	-2060
▁chann	-2061
▁turk	-2062
▁performed	-2063
▁pen	-2064
▁points	-2065
▁tom	-2066
iff	-2067
▁hosp	-2068
istan	-2069
▁ham	-2070
eded	-2071
▁doc	-2072
arian	-2073
ala	-2074
ogn	-2075
board	-2076
▁comb	-2077
▁cer	-2078
▁areas	-2079
hem	-2080
▁avail	-2081
sequ	-2082
▁kill	-2083
▁louis	-2084
▁penn	-2085
▁considered	-2086
ertain	-2087
ili	-2088
▁individual	-2089
▁contribut	-2090
▁000.	-2091
▁love	-2092
▁phot	-2093
▁bir	-2094
▁requ	-2095
ique	-2096
▁largest	-2097
▁angel	-2098
rie	-2099
ecutive	-2100
ada	-2101
▁modern	-2102
▁news	-2103
▁sun	-2104
asc	-2105
eth	-2106
▁pur	-2107
▁tak	-2108
▁stadium	-2109
ux	-2110
▁exist	-2111
▁hit	-2112
▁construction	-2113
▁plat	-2114
ases	-2115
▁writer	-2116
▁even	-2117
▁flor	-2118
kn	-2119
acy	-2120
▁premier	-2121
▁sour	-2122
▁actor	-2123
▁using	-2124
▁epis	-2125
▁graduated	-2126
▁edition	-2127
▁ut	-2128
▁girl	-2129
▁available	-2130
▁tracks	-2131
▁stage	-2132
▁texas	-2133
▁ho	-2134
iment	-2135
▁corn	-2136
▁jack	-2137
▁alex	-2138
.,	-2139
▁bow	-2140
hold	-2141
▁independent	-2142
uced	-2143
▁previously	-2144
▁developed	-2145
iec	-2146
▁important	-2147
▁somet	-2148
hic	-2149
hest	-2150
▁settle	-2151
ule	-2152
time	-2153
edy	-2154
▁spanish	-2155
▁rugby	-2156
ably	-2157
▁ireland	-2158
rest	-2159
ects	-2160
▁bul	-2161
utes	-2162
▁mic	-2163
▁interest	-2164
▁carol	-2165
▁bor	-2166
▁chin	-2167
▁health	-2168
▁contract	-2169
▁kore	-2170
no	-2171
▁private	-2172
▁fam	-2173
▁tri	-2174
▁kr	-2175
▁peak	-2176
▁liber	-2177
sour	-2178
aker	-2179
▁length	-2180
▁fort	-2181
▁gmina	-2182
▁contest	-2183
back	-2184
▁said	-2185
▁tro	-2186
ky	-2187
ript	-2188
▁scot	-2189
▁neigh	-2190
▁champion	-2191
▁little	-2192
▁ha	-2193
▁poss	-2194
bc	-2195
▁consists	-2196
▁completed	-2197
▁editor	-2198
▁constitu	-2199
▁tenn	-2200
reen	-2201
▁mos	-2202
▁invest	-2203
▁winning	-2204
▁sand	-2205
count	-2206
▁lower	-2207
▁theatre	-2208
ateg	-2209
▁label	-2210
▁wat	-2211
▁press	-2212
▁ach	-2213
cher	-2214
▁studies	-2215
▁conc	-2216
▁once	-2217
▁what	-2218
ki	-2219
flu	-2220
▁(0000).	-2221
▁municipal	-2222
▁wall	-2223
ound	-2224
▁nar	-2225
▁candid	-2226
▁conserv	-2227
▁front	-2228
▁successful	-2229
acher	-2230
azz	-2231
▁cd	-2232
▁hard	-2233
eds	-2234
▁making	-2235
well	-2236
orporated	-2237
▁islands	-2238
▁see	-2239
▁examp	-2240
▁wales	-2241
istry	-2242
▁separ	-2243
▁congress	-2244
▁recogn	-2245
▁youth	-2246
▁beh	-2247
▁mix	-2248
▁ice	-2249
▁italy	-2250
iction	-2251
most	-2252
▁appl	-2253
▁governor	-2254
play	-2255
▁color	-2256
▁fund	-2257
▁seasons	-2258
iga	-2259
▁situated	-2260
self	-2261
▁goal	-2262
▁step	-2263
▁silver	-2264
▁mother	-2265
rd	-2266
▁rul	-2267
writ	-2268
▁commune	-2269
▁take	-2270
men	-2271
▁media	-2272
▁mean	-2273
ults	-2274
itar	-2275
▁ox	-2276
unction	-2277
▁african	-2278
▁consist	-2279
▁christian	-2280
▁others	-2281
▁process	-2282
▁body	-2283
▁word	-2284
olf	-2285
do	-2286
icated	-2287
▁poet	-2288
▁0000-00	-2289
▁night	-2290
va	-2291
▁further	-2292
▁across	-2293
hood	-2294
▁rob	-2295
val	-2296
pan	-2297
▁anim	-2298
ini	-2299
▁introd	-2300
▁chap	-2301
▁past	-2302
▁sar	-2303
▁mm	-2304
craft	-2305
▁fire	-2306
cy	-2307
ification	-2308
ention	-2309
▁days	-2310
▁francis	-2311
ua	-2312
loy	-2313
▁scored	-2314
bl	-2315
▁catholic	-2316
oming	-2317
ado	-2318
▁fa	-2319
▁ins	-2320
ella	-2321
za	-2322
▁fellow	-2323
▁dan	-2324
▁prior	-2325
ops	-2326
▁battle	-2327
▁instr	-2328
elect	-2329
▁bron	-2330
col	-2331
▁begin	-2332
inct	-2333
icular	-2334
hol	-2335
arter	-2336
▁section	-2337
▁channel	-2338
▁serving	-2339
ón	-2340
▁baseball	-2341
▁frank	-2342
▁hospital	-2343
▁virginia	-2344
▁famous	-2345
▁organization	-2346
▁resident	-2347
▁federal	-2348
rain	-2349
▁type	-2350
▁creek	-2351
ush	-2352
ctor	-2353
▁human	-2354
olution	-2355
▁active	-2356
▁ven	-2357
▁collection	-2358
▁atl	-2359
▁japanese	-2360
▁mexico	-2361
▁trop	-2362
▁less	-2363
ced	-2364
▁greek	-2365
used	-2366
ump	-2367
rov	-2368
▁force	-2369
▁navy	-2370
▁blue	-2371
▁michael	-2372
sy	-2373
▁above	-2374
▁libr	-2375
ria	-2376
▁sir	-2377
▁transl	-2378
▁farm	-2379
▁voiv	-2380
▁commerc	-2381
▁aud	-2382
▁artic	-2383
▁junior	-2384
ids	-2385
▁defeated	-2386
▁peter	-2387
▁information	-2388
▁ball	-2389
ura	-2390
western	-2391
▁buildings	-2392
▁added	-2393
▁foc	-2394
ów	-2395
▁wid	-2396
ns	-2397
▁master	-2398
▁henry	-2399
aly	-2400
wa	-2401
▁without	-2402
▁#	-2403
▁formula	-2404
▁van	-2405
erous	-2406
▁subsequ	-2407
▁dark	-2408
▁nomin	-2409
▁voivodes	-2410
pr	-2411
▁voivodeship	-2412
▁gard	-2413
road	-2414
▁training	-2415
▁female	-2416
▁transfer	-2417
iers	-2418
▁richard	-2419
▁00.00	-2420
ters	-2421
atives	-2422
▁circ	-2423
wan	-2424
▁voc	-2425
▁albums	-2426
▁technology	-2427
▁chic	-2428
▁mater	-2429
less	-2430
▁access	-2431
roll	-2432
▁fig	-2433
▁composed	-2434
▁below	-2435
▁control	-2436
▁never	-2437
dr	-2438
▁square	-2439
eph	-2440
east	-2441
▁discover	-2442
▁chinese	-2443
▁reached	-2444
ita	-2445
▁goals	-2446
ena	-2447
▁corpor	-2448
▁squad	-2449
arch	-2450
▁operated	-2451
▁$00	-2452
airs	-2453
▁read	-2454
atory	-2455
▁cit	-2456
▁throughout	-2457
band	-2458
mo	-2459
amer	-2460
▁today	-2461
▁oh	-2462
▁sus	-2463
▁anc	-2464
▁leading	-2465
ny	-2466
▁elections	-2467
▁replaced	-2468
▁(;	-2469
▁view	-2470
▁sent	-2471
▁officer	-2472
ko	-2473
▁shows	-2474
ising	-2475
▁0000–0000	-2476
▁columb	-2477
▁belong	-2478
▁comput	-2479
▁away	-2480
igan	-2481
▁management	-2482
▁!	-2483
▁romanized	-2484
▁continued	-2485
▁heav	-2486
▁exhib	-2487
ense	-2488
▁ran	-2489
▁usually	-2490
▁acqu	-2491
▁dig	-2492
oma	-2493
▁newsp	-2494
▁minor	-2495
▁ident	-2496
uce	-2497
▁card	-2498
▁placed	-2499
▁aircraft	-2500
▁pac	-2501
vir	-2502
▁prop	-2503
▁(0000–0000)	-2504
▁industry	-2505
ylv	-2506
▁meet	-2507
▁via	-2508
▁manager	-2509
aur	-2510
▁document	-2511
▁dest	-2512
▁0-0	-2513
▁close	-2514
ground	-2515
▁model	-2516
▁expl	-2517
▁upon	-2518
ero	-2519
ography	-2520
ker	-2521
▁cz	-2522
▁guitar	-2523
▁stars	-2524
erve	-2525
▁key	-2526
▁dom	-2527
▁distribut	-2528
▁kil	-2529
▁spent	-2530
▁democratic	-2531
▁primary	-2532
▁commercial	-2533
▁spain	-2534
ware	-2535
▁marine	-2536
▁esp	-2537
ither	-2538
▁highest	-2539
ador	-2540
ylvania	-2541
da	-2542
▁wal	-2543
ination	-2544
▁ko	-2545
▁actress	-2546
▁glo	-2547
"),	-2548
ators	-2549
▁achie	-2550
▁incre	-2551
ufact	-2552
▁particular	-2553
▁medical	-2554
mark	-2555
▁pers	-2556
▁selected	-2557
▁countries	-2558
▁territ	-2559
▁mis	-2560
class	-2561
▁florida	-2562
▁metres	-2563
▁soft	-2564
▁annual	-2565
▁plan	-2566
▁secretary	-2567
ours	-2568
▁claim	-2569
▁chicago	-2570
▁manufact	-2571
head	-2572
hod	-2573
sw	-2574
inn	-2575
▁tim	-2576
▁remained	-2577
▁castle	-2578
▁fle	-2579
▁honor	-2580
▁0000).	-2581
itive	-2582
▁names	-2583
,"	-2584
iple	-2585
▁here	-2586
▁musical	-2587
▁tar	-2588
▁smith	-2589
igr	-2590
▁performance	-2591
▁parts	-2592
▁et	-2593
▁taken	-2594
aching	-2595
▁staff	-2596
▁prize	-2597
▁loss	-2598
▁pak	-2599
ope	-2600
▁earned	-2601
aged	-2602
▁0-	-2603
▁gall	-2604
▁drama	-2605
lit	-2606
▁pot	-2607
▁feature	-2608
uth	-2609
▁train	-2610
▁box	-2611
known	-2612
▁artists	-2613
ii	-2614
ining	-2615
▁draw	-2616
ails	-2617
▁get	-2618
usc	-2619
▁swedish	-2620
▁closed	-2621
▁carolina	-2622
ailed	-2623
don	-2624
now	-2625
face	-2626
po	-2627
▁wild	-2628
▁penns	-2629
▁olympic	-2630
ati	-2631
▁wing	-2632
jan	-2633
▁az	-2634
orth	-2635
▁followed	-2636
▁involved	-2637
sen	-2638
▁miles	-2639
pro	-2640
▁argent	-2641
▁irish	-2642
ensive	-2643
ugu	-2644
▁ca	-2645
rian	-2646
abor	-2647
▁household	-2648
orm	-2649
▁producer	-2650
bu	-2651
▁influ	-2652
hl	-2653
▁bud	-2654
▁pennsylvania	-2655
tic	-2656
▁“	-2657
▁offer	-2658
onia	-2659
▁ec	-2660
▁assistant	-2661
▁foundation	-2662
▁cho	-2663
aries	-2664
ran	-2665
▁angeles	-2666
wegian	-2667
▁attack	-2668
▁winter	-2669
▁mayor	-2670
▁hung	-2671
▁lord	-2672
ched	-2673
▁command	-2674
▁chairman	-2675
▁wide	-2676
urban	-2677
leg	-2678
▁inh	-2679
▁does	-2680
▁space	-2681
▁lived	-2682
▁habit	-2683
elling	-2684
▁express	-2685
▁changed	-2686
▁georg	-2687
aign	-2688
▁appearances	-2689
ened	-2690
gar	-2691
▁rap	-2692
▁bad	-2693
bridge	-2694
▁police	-2695
ios	-2696
▁hus	-2697
▁noted	-2698
▁cred	-2699
▁find	-2700
▁joseph	-2701
▁os	-2702
▁relations	-2703
▁hom	-2704
▁leader	-2705
▁help	-2706
▁settlement	-2707
▁gal	-2708
▁teacher	-2709
▁constituency	-2710
▁connect	-2711
iro	-2712
▁scient	-2713
▁scottish	-2714
▁sometimes	-2715
▁platform	-2716
ications	-2717
▁iv	-2718
▁cab	-2719
ato	-2720
▁norwegian	-2721
▁upper	-2722
▁movie	-2723
▁entire	-2724
▁mainly	-2725
▁study	-2726
▁russia	-2727
arily	-2728
▁trib	-2729
win	-2730
ask	-2731
▁compan	-2732
bec	-2733
▁syn	-2734
▁dutch	-2735
▁material	-2736
▁lic	-2737
▁walk	-2738
li	-2739
▁put	-2740
ume	-2741
ems	-2742
▁strong	-2743
▁stone	-2744
▁historical	-2745
").	-2746
▁eventually	-2747
bro	-2748
▁clos	-2749
▁sug	-2750
▁serves	-2751
▁inn	-2752
ja	-2753
/00	-2754
ray	-2755
▁cell	-2756
▁mah	-2757
based	-2758
▁tal	-2759
▁compil	-2760
▁slov	-2761
▁ohio	-2762
view	-2763
▁transport	-2764
▁covers	-2765
▁reported	-2766
▁library	-2767
▁himself	-2768
iana	-2769
▁atlant	-2770
apt	-2771
use	-2772
▁hind	-2773
▁inst	-2774
▁brand	-2775
▁kent	-2776
ox	-2777
iger	-2778
iences	-2779
ote	-2780
ali	-2781
ym	-2782
▁executive	-2783
▁categ	-2784
▁location	-2785
▁god	-2786
aps	-2787
▁complex	-2788
▁stock	-2789
▁unit	-2790
▁bronze	-2791
▁campaign	-2792
▁colon	-2793
▁groups	-2794
▁spring	-2795
mond	-2796
ication	-2797
▁participated	-2798
▁border	-2799
▁whose	-2800
▁scotland	-2801
bi	-2802
▁surround	-2803
▁chem	-2804
uble	-2805
awa	-2806
▁bol	-2807
unched	-2808
lor	-2809
▁winner	-2810
▁starring	-2811
▁fut	-2812
onment	-2813
▁date	-2814
fr	-2815
orial	-2816
..	-2817
ipl	-2818
▁succe	-2819
je	-2820
▁lie	-2821
▁origin	-2822
▁comedy	-2823
▁example	-2824
▁limited	-2825
▁except	-2826
▁structure	-2827
▁text	-2828
▁standard	-2829
▁entered	-2830
▁eth	-2831
ansas	-2832
unk	-2833
▁beet	-2834
▁baron	-2835
▁variet	-2836
▁00–00	-2837
idence	-2838
▁writing	-2839
▁fight	-2840
ti	-2841
▁nine	-2842
▁ess	-2843
▁yellow	-2844
▁spr	-2845
▁numerous	-2846
isher	-2847
read	-2848
rael	-2849
▁fifth	-2850
▁cem	-2851
bal	-2852
porary	-2853
▁dar	-2854
▁respons	-2855
▁lives	-2856
▁czech	-2857
▁method	-2858
onom	-2859
enth	-2860
vi	-2861
▁seen	-2862
▁boy	-2863
ows	-2864
▁princip	-2865
inois	-2866
enced	-2867
▁recording	-2868
▁jazz	-2869
▁da	-2870
▁heart	-2871
elled	-2872
▁sov	-2873
▁envir	-2874
▁(0000-0000	-2875
▁mostly	-2876
▁beginning	-2877
ilities	-2878
▁months	-2879
▁block	-2880
sm	-2881
▁related	-2882
ils	-2883
▁""	-2884
▁qualif	-2885
▁electric	-2886
▁pap	-2887
▁deput	-2888
▁queen	-2889
▁appearance	-2890
▁deal	-2891
venue	-2892
rial	-2893
▁running	-2894
▁columbia	-2895
▁agric	-2896
▁size	-2897
stand	-2898
▁carl	-2899
▁elev	-2900
▁schol	-2901
▁$00,000	-2902
▁(000	-2903
inet	-2904
yan	-2905
▁case	-2906
bury	-2907
▁gave	-2908
▁illinois	-2909
▁mission	-2910
▁twent	-2911
▁screen	-2912
▁bon	-2913
▁mr	-2914
over	-2915
▁obs	-2916
▁insp	-2917
▁forces	-2918
▁0.0%	-2919
▁males	-2920
oring	-2921
stead	-2922
▁provinc	-2923
mad	-2924
▁rh	-2925
▁branch	-2926
emic	-2927
▁ord	-2928
▁agricult	-2929
▁course	-2930
▁pacific	-2931
▁nearby	-2932
▁legislative	-2933
sa	-2934
▁occup	-2935
house	-2936
oms	-2937
▁traditional	-2938
ela	-2939
aught	-2940
▁ded	-2941
▁promoted	-2942
-000	-2943
like	-2944
▁overall	-2945
rey	-2946
▁soviet	-2947
▁cut	-2948
▁temple	-2949
aches	-2950
▁000,000	-2951
▁launched	-2952
▁clubs	-2953
▁edward	-2954
▁mountains	-2955
▁headqu	-2956
án	-2957
▁ram	-2958
ements	-2959
▁concer	-2960
oral	-2961
▁trade	-2962
▁means	-2963
▁engineering	-2964
▁link	-2965
▁relig	-2966
▁bird	-2967
bre	-2968
▁saw	-2969
here	-2970
▁swim	-2971
▁property	-2972
itude	-2973
abad	-2974
▁food	-2975
▁score	-2976
urne	-2977
▁wings	-2978
▁caus	-2979
inent	-2980
iting	-2981
▁attem	-2982
anda	-2983
▁albert	-2984
ider	-2985
▁)	-2986
▁haw	-2987
tario	-2988
▁ontario	-2989
ni	-2990
ersey	-2991
▁got	-2992
new	-2993
▁purch	-2994
ava	-2995
▁either	-2996
▁jew	-2997
▁polish	-2998
▁data	-2999
▁martin	-3000
▁arab	-3001
▁student	-3002
▁villages	-3003
▁israel	-3004
▁accom	-3005
roy	-3006
▁captain	-3007
aya	-3008
▁bang	-3009
▁systems	-3010
▁woman	-3011
▁tower	-3012
▁coup	-3013
agon	-3014
▁earth	-3015
▁quarter	-3016
▁format	-3017
ective	-3018
▁movement	-3019
right	-3020
▁philipp	-3021
ream	-3022
▁females	-3023
inals	-3024
▁whom	-3025
mal	-3026
▁inj	-3027
▁foreign	-3028
etts	-3029
▁rang	-3030
▁grant	-3031
also	-3032
pa	-3033
hs	-3034
▁newspaper	-3035
ira	-3036
▁male	-3037
▁altern	-3038
▁vice	-3039
▁candidate	-3040
▁soccer	-3041
achus	-3042
▁districts	-3043
lebr	-3044
▁gun	-3045
▁subsequently	-3046
▁associated	-3047
▁educated	-3048
▁practice	-3049
teen	-3050
stra	-3051
▁financ	-3052
▁meas	-3053
▁beach	-3054
▁becoming	-3055
onsin	-3056
chester	-3057
aka	-3058
isconsin	-3059
▁fly	-3060
sel	-3061
▁sett	-3062
ien	-3063
iation	-3064
▁sister	-3065
▁desp	-3066
▁fair	-3067
aceae	-3068
▁must	-3069
ette	-3070
sch	-3071
▁ministry	-3072
▁ray	-3073
▁wisconsin	-3074
▁bac	-3075
▁travel	-3076
ski	-3077
▁racing	-3078
iate	-3079
▁raj	-3080
▁pict	-3081
burgh	-3082
gu	-3083
▁anth	-3084
▁starting	-3085
▁prince	-3086
▁senate	-3087
▁bound	-3088
▁log	-3089
fa	-3090
inary	-3091
▁pred	-3092
ros	-3093
▁treat	-3094
▁ur	-3095
▁endemic	-3096
etery	-3097
▁almost	-3098
▁sab	-3099
▁dance	-3100
▁wel	-3101
▁operations	-3102
▁webs	-3103
▁pil	-3104
▁solo	-3105
ificant	-3106
vin	-3107
▁cemetery	-3108
▁environment	-3109
▁domin	-3110
achusetts	-3111
▁least	-3112
▁celebr	-3113
▁michigan	-3114
▁lear	-3115
▁source	-3116
bill	-3117
▁cas	-3118
akh	-3119
adesh	-3120
▁chall	-3121
war	-3122
▁leaves	-3123
iano	-3124
▁metal	-3125
▁hotel	-3126
▁ukrain	-3127
▁massachusetts	-3128
▁subject	-3129
▁collabor	-3130
▁ended	-3131
▁action	-3132
▁prote	-3133
lim	-3134
incorporated	-3135
▁tall	-3136
▁georgia	-3137
▁ba	-3138
▁jersey	-3139
▁drum	-3140
▁houses	-3141
ights	-3142
dney	-3143
▁introduced	-3144
▁formerly	-3145
ingu	-3146
▁significant	-3147
▁code	-3148
icy	-3149
▁exc	-3150
▁tun	-3151
ips	-3152
▁oce	-3153
tained	-3154
▁trust	-3155
reat	-3156
▁blo	-3157
▁ta	-3158
▁culture	-3159
fly	-3160
iang	-3161
▁focus	-3162
▁ken	-3163
▁northwest	-3164
▁amb	-3165
▁meaning	-3166
▁unincorporated	-3167
▁neighbor	-3168
▁cycl	-3169
met	-3170
▁occur	-3171
▁ancient	-3172
ites	-3173
▁motor	-3174
▁renamed	-3175
▁/	-3176
▁covered	-3177
▁husband	-3178
▁corporation	-3179
▁deputy	-3180
▁stories	-3181
▁southeast	-3182
▁older	-3183
▁ok	-3184
ply	-3185
▁bell	-3186
▁plann	-3187
▁emer	-3188
ways	-3189
▁victoria	-3190
▁ic	-3191
▁bass	-3192
▁administration	-3193
▁lin	-3194
▁frequ	-3195
▁mathem	-3196
▁ak	-3197
▁contem	-3198
▁companies	-3199
writer	-3200
▁soon	-3201
bon	-3202
▁break	-3203
unter	-3204
▁fav	-3205
▁initially	-3206
▁ga	-3207
▁web	-3208
▁provided	-3209
▁thir	-3210
▁mach	-3211
▁reserve	-3212
uge	-3213
▁jul	-3214
town	-3215
imb	-3216
▁sevent	-3217
▁sweden	-3218
▁prob	-3219
▁variety	-3220
fe	-3221
car	-3222
▁gene	-3223
▁belie	-3224
ores	-3225
▁convent	-3226
▁outside	-3227
▁latin	-3228
ends	-3229
▁lyric	-3230
▁nations	-3231
▁let	-3232
▁asian	-3233
wings	-3234
▁provides	-3235
ergy	-3236
▁doctor	-3237
ential	-3238
ror	-3239
▁draft	-3240
▁representatives	-3241
▁orche	-3242
▁roles	-3243
▁opening	-3244
▁brook	-3245
▁ell	-3246
▁tax	-3247
anian	-3248
▁urban	-3249
pur	-3250
▁kong	-3251
▁higher	-3252
▁decided	-3253
▁rights	-3254
▁jim	-3255
ole	-3256
wing	-3257
▁bh	-3258
▁lee	-3259
▁complete	-3260
▁inhabit	-3261
▁representative	-3262
olit	-3263
▁personal	-3264
ocese	-3265
ram	-3266
▁mir	-3267
▁thus	-3268
▁despite	-3269
▁dyn	-3270
omer	-3271
▁behind	-3272
▁0–0,	-3273
▁psy	-3274
vo	-3275
▁tel	-3276
▁constructed	-3277
▁stra	-3278
▁killed	-3279
bar	-3280
▁occas	-3281
▁luc	-3282
▁shar	-3283
▁commonly	-3284
▁follows	-3285
bourne	-3286
▁stations	-3287
▁oxford	-3288
mann	-3289
rel	-3290
rence	-3291
▁hong	-3292
▁secondary	-3293
▁feet	-3294
ipe	-3295
▁nick	-3296
rich	-3297
▁primarily	-3298
▁operation	-3299
▁computer	-3300
▁generally	-3301
▁raised	-3302
▁northeast	-3303
▁results	-3304
ologist	-3305
▁wa	-3306
▁jer	-3307
pal	-3308
▁usa	-3309
▁gast	-3310
▁ide	-3311
▁digital	-3312
▁employ	-3313
arm	-3314
▁ker	-3315
ires	-3316
ises	-3317
▁stan	-3318
▁divis	-3319
▁tele	-3320
▁bab	-3321
▁speed	-3322
ulf	-3323
american	-3324
▁account	-3325
▁twenty	-3326
▁liberal	-3327
▁sect	-3328
▁0000;	-3329
▁brothers	-3330
▁store	-3331
▁berlin	-3332
oon	-3333
▁const	-3334
▁products	-3335
▁lines	-3336
▁nation	-3337
▁labor	-3338
▁republican	-3339
▁progress	-3340
urity	-3341
▁acquired	-3342
ila	-3343
mont	-3344
▁income	-3345
▁hur	-3346
▁taking	-3347
▁provide	-3348
▁beetle	-3349
▁nether	-3350
onto	-3351
▁nominated	-3352
ić	-3353
▁grey	-3354
▁instead	-3355
caa	-3356
▁forms	-3357
▁justice	-3358
▁units	-3359
famil	-3360
▁jean	-3361
▁itself	-3362
ecially	-3363
▁cin	-3364
ender	-3365
▁page	-3366
▁mand	-3367
▁birth	-3368
dy	-3369
ova	-3370
▁tennis	-3371
▁double	-3372
▁sched	-3373
▁judge	-3374
▁sund	-3375
▁sydney	-3376
▁serb	-3377
adel	-3378
▁remains	-3379
▁norway	-3380
yer	-3381
▁fish	-3382
▁look	-3383
▁boston	-3384
▁asia	-3385
▁takes	-3386
ties	-3387
▁queens	-3388
▁pay	-3389
▁sav	-3390
▁divided	-3391
och	-3392
erb	-3393
iy	-3394
▁imm	-3395
▁earlier	-3396
net	-3397
▁cant	-3398
▁self	-3399
▁software	-3400
▁jac	-3401
▁website	-3402
ophy	-3403
▁piec	-3404
gs	-3405
▁opt	-3406
▁gra	-3407
▁statist	-3408
▁surface	-3409
▁mu	-3410
▁kal	-3411
mus	-3412
▁stop	-3413
▁establish	-3414
▁succeeded	-3415
oke	-3416
ora	-3417
▁recently	-3418
anced	-3419
isation	-3420
▁pakistan	-3421
▁ash	-3422
arters	-3423
▁minutes	-3424
▁id	-3425
▁firm	-3426
▁proble	-3427
▁entertain	-3428
▁0.00%	-3429
▁hosted	-3430
illa	-3431
nel	-3432
ership	-3433
▁deter	-3434
▁featuring	-3435
rents	-3436
▁episode	-3437
▁majority	-3438
▁stri	-3439
lam	-3440
▁philos	-3441
▁anton	-3442
kee	-3443
ques	-3444
riz	-3445
ken	-3446
wide	-3447
hu	-3448
▁literature	-3449
▁medic	-3450
▁anal	-3451
▁saf	-3452
▁dedicated	-3453
water	-3454
▁netherlands	-3455
▁composer	-3456
▁programs	-3457
▁prominent	-3458
▁pick	-3459
▁cultural	-3460
▁know	-3461
▁railroad	-3462
uten	-3463
▁od	-3464
itt	-3465
▁complet	-3466
aily	-3467
▁era	-3468
▁affili	-3469
▁decl	-3470
▁turkey	-3471
heastern	-3472
▁mas	-3473
▁francisco	-3474
▁oppos	-3475
▁towards	-3476
▁beat	-3477
clus	-3478
cel	-3479
▁ped	-3480
▁empire	-3481
▁come	-3482
▁presented	-3483
▁change	-3484
="	-3485
▁inhabitants	-3486
ping	-3487
urer	-3488
▁southwest	-3489
▁fres	-3490
greg	-3491
▁contemporary	-3492
▁beg	-3493
▁rather	-3494
▁representing	-3495
▁future	-3496
▁status	-3497
▁avenue	-3498
▁mention	-3499
▁discovered	-3500
onic	-3501
▁oil	-3502
▁mec	-3503
itors	-3504
▁iii	-3505
▁autom	-3506
▁burn	-3507
▁passeng	-3508
▁santa	-3509
▁cust	-3510
▁formation	-3511
▁die	-3512
▁anti	-3513
▁plants	-3514
▁acting	-3515
▁victory	-3516
▁founder	-3517
▁[	-3518
ione	-3519
▁viol	-3520
▁prime	-3521
rup	-3522
▁prison	-3523
nam	-3524
▁territory	-3525
▁especially	-3526
▁estate	-3527
▁survey	-3528
asing	-3529
▁seats	-3530
▁moll	-3531
▁table	-3532
dro	-3533
▁tree	-3534
▁capac	-3535
reme	-3536
▁opera	-3537
gl	-3538
ift	-3539
unch	-3540
imate	-3541
▁opp	-3542
oper	-3543
rad	-3544
▁titles	-3545
▁korea	-3546
anz	-3547
ffer	-3548
▁les	-3549
▁recent	-3550
▁ocean	-3551
ão	-3552
▁sciences	-3553
▁cra	-3554
des	-3555
▁guest	-3556
▁campus	-3557
▁activities	-3558
▁scul	-3559
ropod	-3560
▁online	-3561
ias	-3562
▁lu	-3563
▁shot	-3564
▁sri	-3565
▁jones	-3566
▁transferred	-3567
▁sixth	-3568
▁managed	-3569
▁additional	-3570
▁ncaa	-3571
▁ib	-3572
tv	-3573
▁referred	-3574
▁distance	-3575
▁money	-3576
ighth	-3577
▁deep	-3578
▁should	-3579
▁financial	-3580
▁bbc	-3581
▁marg	-3582
las	-3583
▁bob	-3584
nesota	-3585
▁semi	-3586
part	-3587
▁nam	-3588
itch	-3589
▁buried	-3590
ucky	-3591
owa	-3592
▁charl	-3593
▁adj	-3594
▁grade	-3595
▁organiz	-3596
▁mexican	-3597
▁williams	-3598
▁scholar	-3599
▁psych	-3600
▁amate	-3601
▁hop	-3602
▁paper	-3603
▁feed	-3604
▁alexander	-3605
▁respect	-3606
▁toronto	-3607
▁reserv	-3608
▁federation	-3609
uments	-3610
aph	-3611
ustr	-3612
▁issues	-3613
▁industrial	-3614
▁academic	-3615
▁minnesota	-3616
▁nature	-3617
anth	-3618
div	-3619
mas	-3620
stone	-3621
▁agre	-3622
▁hills	-3623
▁qualified	-3624
▁electron	-3625
souri	-3626
▁bern	-3627
ension	-3628
zo	-3629
▁maxim	-3630
▁towns	-3631
abeth	-3632
erved	-3633
▁spir	-3634
▁sculpt	-3635
▁critic	-3636
▁shown	-3637
osl	-3638
▁affairs	-3639
▁roll	-3640
▁sr	-3641
▁latter	-3642
iki	-3643
▁wins	-3644
istic	-3645
▁sex	-3646
▁say	-3647
▁rat	-3648
▁painter	-3649
▁cub	-3650
▁security	-3651
change	-3652
riage	-3653
▁som	-3654
▁uses	-3655
▁object	-3656
▁memorial	-3657
▁attempt	-3658
▁taught	-3659
0.	-3660
ng	-3661
fit	-3662
▁shop	-3663
▁median	-3664
▁habitat	-3665
▁rome	-3666
▁arrang	-3667
billboard	-3668
▁aired	-3669
▁forward	-3670
ulation	-3671
▁missouri	-3672
▁na	-3673
▁abb	-3674
ima	-3675
▁winners	-3676
▁economic	-3677
▁jr	-3678
itled	-3679
▁pra	-3680
▁diam	-3681
▁episodes	-3682
eland	-3683
▁britain	-3684
▁guard	-3685
0,	-3686
▁broadcasting	-3687
gal	-3688
▁gram	-3689
▁provincial	-3690
▁sons	-3691
rid	-3692
▁ros	-3693
▁0:00	-3694
real	-3695
▁photograp	-3696
utenant	-3697
▁entertainment	-3698
▁cities	-3699
▁von	-3700
gypt	-3701
▁agency	-3702
▁tribut	-3703
▁ka	-3704
ulty	-3705
mitted	-3706
▁sym	-3707
atics	-3708
▁rules	-3709
▁split	-3710
▁harv	-3711
▁revolution	-3712
▁pu	-3713
▁inte	-3714
▁capacity	-3715
hal	-3716
▁garden	-3717
vd	-3718
▁coal	-3719
▁abs	-3720
▁regiment	-3721
itzer	-3722
▁hamp	-3723
fect	-3724
kin	-3725
▁holds	-3726
▁lay	-3727
▁better	-3728
▁mixed	-3729
ount	-3730
▁thr	-3731
umn	-3732
action	-3733
ving	-3734
▁principal	-3735
▁conver	-3736
▁regard	-3737
▁separate	-3738
▁zone	-3739
▁daily	-3740
▁accept	-3741
▁andrew	-3742
▁heavy	-3743
▁diff	-3744
▁distinct	-3745
aped	-3746
▁sher	-3747
stein	-3748
▁kilomet	-3749
▁households	-3750
mes	-3751
▁golden	-3752
▁ward	-3753
▁cart	-3754
▁amateur	-3755
▁offers	-3756
hens	-3757
central	-3758
▁grew	-3759
▁category	-3760
cow	-3761
▁gi	-3762
▁appears	-3763
▁bachel	-3764
▁gener	-3765
▁energy	-3766
▁languages	-3767
▁eliz	-3768
ji	-3769
di	-3770
standing	-3771
▁termin	-3772
mir	-3773
▁melbourne	-3774
atively	-3775
ls	-3776
▁reform	-3777
▁mcc	-3778
▁loan	-3779
ielder	-3780
▁reason	-3781
arct	-3782
▁larger	-3783
ée	-3784
uv	-3785
acters	-3786
▁lieutenant	-3787
▁merged	-3788
▁serve	-3789
▁dun	-3790
▁multiple	-3791
iant	-3792
▁ban	-3793
bel	-3794
hr	-3795
▁retire	-3796
▁girls	-3797
found	-3798
▁comes	-3799
bell	-3800
▁characters	-3801
▁documentary	-3802
▁diocese	-3803
gro	-3804
▁falls	-3805
▁able	-3806
▁headquarters	-3807
▁egypt	-3808
▁gastropod	-3809
more	-3810
▁partners	-3811
▁brought	-3812
▁path	-3813
▁korean	-3814
▁rot	-3815
▁twice	-3816
bers	-3817
▁indones	-3818
▁obl	-3819
▁hunt	-3820
▁esc	-3821
alled	-3822
▁weeks	-3823
▁parents	-3824
▁rose	-3825
asy	-3826
▁entry	-3827
▁cambridge	-3828
gers	-3829
▁gil	-3830
▁ens	-3831
sky	-3832
▁suggest	-3833
▁suff	-3834
▁responsible	-3835
▁cham	-3836
hing	-3837
▁voice	-3838
ublin	-3839
▁jon	-3840
▁labour	-3841
enia	-3842
▁forests	-3843
▁dens	-3844
▁fame	-3845
▁fine	-3846
▁bot	-3847
▁dor	-3848
▁moving	-3849
bol	-3850
▁brie	-3851
▁daniel	-3852
includ	-3853
can	-3854
▁flowers	-3855
▁joint	-3856
▁commander	-3857
▁athletic	-3858
▁scoring	-3859
▁investig	-3860
▁trail	-3861
▁cinem	-3862
olitan	-3863
▁nec	-3864
▁orchestra	-3865
▁shoot	-3866
urt	-3867
▁shr	-3868
onym	-3869
weight	-3870
▁architecture	-3871
▁oak	-3872
▁dipl	-3873
▁hu	-3874
▁races	-3875
▁finish	-3876
▁partner	-3877
▁sha	-3878
▁duke	-3879
▁malays	-3880
▁spot	-3881
▁oldest	-3882
adelph	-3883
▁figure	-3884
▁bachelor	-3885
▁fiction	-3886
▁kir	-3887
▁gh	-3888
▁jackson	-3889
▁niger	-3890
▁poly	-3891
bed	-3892
▁mit	-3893
olk	-3894
▁micro	-3895
▁terms	-3896
▁greater	-3897
story	-3898
inity	-3899
▁adop	-3900
usk	-3901
▁diss	-3902
▁rain	-3903
oor	-3904
▁athletics	-3905
▁vehic	-3906
▁officially	-3907
▁pier	-3908
▁beaut	-3909
▁flows	-3910
star	-3911
▁stay	-3912
▁nic	-3913
ece	-3914
▁folk	-3915
▁alt	-3916
▁cape	-3917
▁whit	-3918
▁bos	-3919
▁iron	-3920
▁destroy	-3921
▁enzy	-3922
▁owner	-3923
▁extended	-3924
▁wars	-3925
▁scientific	-3926
▁designated	-3927
hedral	-3928
▁shell	-3929
▁medals	-3930
▁restaur	-3931
illy	-3932
adelphia	-3933
put	-3934
▁legal	-3935
▁failed	-3936
▁indiana	-3937
▁sess	-3938
aces	-3939
▁cm	-3940
▁helped	-3941
▁tropical	-3942
utions	-3943
▁journalist	-3944
idi	-3945
▁mob	-3946
▁hits	-3947
▁probably	-3948
aga	-3949
▁sequ	-3950
▁seg	-3951
▁rare	-3952
▁leaving	-3953
▁housing	-3954
▁finn	-3955
▁clear	-3956
▁catal	-3957
▁finally	-3958
▁metrop	-3959
heim	-3960
▁junction	-3961
▁boys	-3962
▁mi	-3963
oo	-3964
▁vic	-3965
▁crown	-3966
▁fel	-3967
▁gas	-3968
▁fm	-3969
▁electoral	-3970
oe	-3971
thur	-3972
▁room	-3973
▁moscow	-3974
ws	-3975
▁medicine	-3976
oved	-3977
▁neighborhood	-3978
▁quebec	-3979
▁mine	-3980
not	-3981
book	-3982
▁lyrics	-3983
▁ple	-3984
kh	-3985
▁bene	-3986
▁paint	-3987
▁citiz	-3988
▁protein	-3989
itage	-3990
▁vocal	-3991
▁und	-3992
kins	-3993
▁enter	-3994
▁drop	-3995
▁pack	-3996
▁00-00	-3997
▁concert	-3998
▁anne	-3999
▁purchased	-4000
▁theater	-4001
▁00:00	-4002
▁aged	-4003
▁religious	-4004
▁want	-4005
▁lif	-4006
oned	-4007
▁musician	-4008
mission	-4009
▁danish	-4010
▁dead	-4011
▁refers	-4012
▁lik	-4013
▁article	-4014
▁ru	-4015
▁brazilian	-4016
iance	-4017
▁effort	-4018
▁ku	-4019
▁philadelphia	-4020
▁graduate	-4021
▁happ	-4022
una	-4023
ability	-4024
▁atlantic	-4025
▁romania	-4026
▁height	-4027
aded	-4028
▁ceram	-4029
...	-4030
election	-4031
▁alongside	-4032
▁marsh	-4033
▁effect	-4034
ging	-4035
▁face	-4036
▁ult	-4037
▁poetry	-4038
▁ful	-4039
▁projects	-4040
oid	-4041
▁painting	-4042
▁horse	-4043
▁ott	-4044
resp	-4045
▁organized	-4046
▁recognized	-4047
▁create	-4048
agh	-4049
▁theory	-4050
itation	-4051
▁bed	-4052
▁brig	-4053
fielder	-4054
aria	-4055
▁tay	-4056
ds	-4057
▁gab	-4058
▁hours	-4059
▁remaining	-4060
▁mile	-4061
▁attract	-4062
▁pun	-4063
▁indic	-4064
▁relationship	-4065
▁authority	-4066
aug	-4067
eman	-4068
chen	-4069
▁supported	-4070
▁specific	-4071
▁illustr	-4072
▁friends	-4073
▁particularly	-4074
▁argentina	-4075
▁dur	-4076
▁sud	-4077
mun	-4078
encies	-4079
life	-4080
▁possible	-4081
amin	-4082
▁occurs	-4083
▁borough	-4084
▁johnson	-4085
▁cert	-4086
▁#00	-4087
ograph	-4088
ern	-4089
▁estim	-4090
▁meeting	-4091
▁articles	-4092
▁compilation	-4093
▁vent	-4094
▁bure	-4095
▁vote	-4096
▁antarct	-4097
▁your	-4098
mod	-4099
▁elizabeth	-4100
▁heritage	-4101
▁nearly	-4102
▁peace	-4103
▁assigned	-4104
esh	-4105
▁croat	-4106
▁susp	-4107
▁por	-4108
▁brick	-4109
▁tai	-4110
▁lady	-4111
▁instrument	-4112
▁classic	-4113
▁lt	-4114
▁certain	-4115
▁going	-4116
▁narrow	-4117
▁trains	-4118
▁ah	-4119
▁maria	-4120
▁naval	-4121
▁gained	-4122
▁austria	-4123
▁rivers	-4124
▁lank	-4125
▁kenn	-4126
ev	-4127
▁apart	-4128
▁queensland	-4129
▁longer	-4130
cul	-4131
▁elevation	-4132
bour	-4133
family	-4134
▁votes	-4135
▁roof	-4136
▁clin	-4137
▁advis	-4138
▁sac	-4139
century	-4140
▁continu	-4141
▁inters	-4142
aska	-4143
ucle	-4144
▁jewish	-4145
▁too	-4146
▁000.0	-4147
▁younger	-4148
▁flag	-4149
ci	-4150
▁reach	-4151
▁jur	-4152
▁conservative	-4153
▁technical	-4154
▁aqu	-4155
▁suffer	-4156
▁element	-4157
vert	-4158
ental	-4159
▁hay	-4160
▁operating	-4161
iders	-4162
regon	-4163
▁cook	-4164
▁—	-4165
▁entr	-4166
track	-4167
▁multi	-4168
▁copies	-4169
ients	-4170
▁aim	-4171
het	-4172
▁oregon	-4173
▁literary	-4174
▁(0000–0000),	-4175
▁fast	-4176
ube	-4177
▁fill	-4178
▁enc	-4179
▁glac	-4180
▁ot	-4181
▁sax	-4182
rem	-4183
▁promotion	-4184
pose	-4185
▁facilities	-4186
▁kentucky	-4187
oir	-4188
hann	-4189
.)	-4190
down	-4191
onstr	-4192
pass	-4193
▁turkish	-4194
▁frame	-4195
▁eg	-4196
▁costa	-4197
▁freder	-4198
▁fro	-4199
▁cathedral	-4200
▁derived	-4201
umber	-4202
▁unknown	-4203
imin	-4204
▁faculty	-4205
▁advanced	-4206
▁kansas	-4207
ika	-4208
▁las	-4209
ready	-4210
▁penins	-4211
▁dog	-4212
isters	-4213
▁founding	-4214
▁thought	-4215
olis	-4216
▁neg	-4217
▁chile	-4218
▁mentioned	-4219
▁allowed	-4220
▁issue	-4221
▁aer	-4222
▁dub	-4223
▁lect	-4224
▁colomb	-4225
▁move	-4226
▁display	-4227
▁priest	-4228
iat	-4229
▁counties	-4230
▁combined	-4231
▁surrounding	-4232
▁lew	-4233
▁overs	-4234
▁reviews	-4235
iring	-4236
▁prix	-4237
nic	-4238
▁agent	-4239
▁ts	-4240
tered	-4241
▁facility	-4242
▁steel	-4243
▁drug	-4244
▁jeff	-4245
▁done	-4246
▁resour	-4247
▁tributary	-4248
wick	-4249
▁interview	-4250
▁bah	-4251
▁smaller	-4252
▁immed	-4253
bit	-4254
▁exped	-4255
▁compete	-4256
▁il	-4257
▁changes	-4258
▁colorado	-4259
▁tamil	-4260
▁floor	-4261
enna	-4262
▁00.00%	-4263
▁releg	-4264
▁retirement	-4265
▁edge	-4266
▁policy	-4267
uled	-4268
▁direction	-4269
▁viet	-4270
span	-4271
dam	-4272
▁hund	-4273
▁global	-4274
▁containing	-4275
▁tenness	-4276
with	-4277
▁residents	-4278
rac	-4279
▁doubl	-4280
▁obtained	-4281
▁conduct	-4282
▁ny	-4283
▁slight	-4284
▁tennessee	-4285
▁distingu	-4286
chi	-4287
▁finishing	-4288
aled	-4289
itzerland	-4290
worth	-4291
▁bomb	-4292
icult	-4293
ban	-4294
▁purs	-4295
▁flight	-4296
ami	-4297
▁bc	-4298
▁density	-4299
▁passed	-4300
umed	-4301
▁remain	-4302
▁rate	-4303
ru	-4304
oln	-4305
▁corps	-4306
▁bear	-4307
▁ariz	-4308
▁publishing	-4309
aq	-4310
▁mechan	-4311
▁sin	-4312
▁pale	-4313
▁kel	-4314
▁traff	-4315
▁uns	-4316
▁metropolitan	-4317
▁ul	-4318
hire	-4319
▁inside	-4320
▁threat	-4321
▁cry	-4322
▁map	-4323
▁tu	-4324
▁golf	-4325
▁alf	-4326
ses	-4327
▁pod	-4328
rice	-4329
▁gym	-4330
▁politics	-4331
▁cricketer	-4332
osa	-4333
hist	-4334
▁classical	-4335
ras	-4336
▁advent	-4337
▁marriage	-4338
rict	-4339
aki	-4340
▁pow	-4341
▁talk	-4342
▁infant	-4343
▁grass	-4344
▁keep	-4345
oy	-4346
▁murder	-4347
▁trophy	-4348
▁pup	-4349
▁greg	-4350
ordin	-4351
sl	-4352
▁decor	-4353
▁contested	-4354
▁need	-4355
▁lack	-4356
iter	-4357
▁function	-4358
▁maryland	-4359
agu	-4360
ously	-4361
▁lot	-4362
▁makes	-4363
inth	-4364
▁titled	-4365
▁arizona	-4366
▁joining	-4367
▁observ	-4368
▁philippines	-4369
▁switzerland	-4370
▁iowa	-4371
▁turned	-4372
▁dvd	-4373
olished	-4374
▁wingspan	-4375
▁connected	-4376
▁funct	-4377
▁wrest	-4378
▁arena	-4379
ión	-4380
▁dj	-4381
see	-4382
▁harris	-4383
▁subs	-4384
▁hundred	-4385
isk	-4386
▁khan	-4387
▁commissioned	-4388
▁performances	-4389
▁ships	-4390
▁properties	-4391
▁rough	-4392
▁join	-4393
▁fresh	-4394
▁marc	-4395
▁already	-4396
▁replac	-4397
▁rub	-4398
▁jam	-4399
▁pad	-4400
▁stated	-4401
▁studios	-4402
▁weekly	-4403
▁midfielder	-4404
▁imper	-4405
▁dry	-4406
▁arthur	-4407
▁consisted	-4408
sey	-4409
▁volunt	-4410
▁shortly	-4411
ysis	-4412
▁flat	-4413
▁vac	-4414
▁greece	-4415
ogue	-4416
light	-4417
uguese	-4418
▁seventh	-4419
▁issued	-4420
list	-4421
ees	-4422
ju	-4423
ding	-4424
▁fun	-4425
▁windows	-4426
▁joe	-4427
lete	-4428
▁quest	-4429
▁dean	-4430
akers	-4431
▁widely	-4432
▁numbers	-4433
▁‘	-4434
▁volley	-4435
▁cla	-4436
▁perman	-4437
fted	-4438
▁maximum	-4439
▁spread	-4440
▁bes	-4441
▁(),	-4442
lyn	-4443
▁dise	-4444
▁teaching	-4445
estyle	-4446
ription	-4447
uries	-4448
▁charts	-4449
▁temper	-4450
▁abd	-4451
▁coming	-4452
ipped	-4453
▁orange	-4454
respond	-4455
▁finnish	-4456
▁individuals	-4457
▁theme	-4458
gium	-4459
osen	-4460
▁achieved	-4461
▁prec	-4462
▁versions	-4463
mat	-4464
▁poor	-4465
▁ark	-4466
▁carried	-4467
▁engineer	-4468
ills	-4469
▁doug	-4470
▁continues	-4471
▁swiss	-4472
▁snail	-4473
▁mast	-4474
ells	-4475
▁performing	-4476
▁corner	-4477
▁max	-4478
▁islam	-4479
▁butter	-4480
▁typically	-4481
cidae	-4482
onian	-4483
▁kim	-4484
iday	-4485
▁programme	-4486
▁ron	-4487
izing	-4488
▁barb	-4489
▁shel	-4490
▁licens	-4491
orney	-4492
▁cerem	-4493
ancy	-4494
▁brad	-4495
ür	-4496
pres	-4497
wo	-4498
▁lind	-4499
▁rab	-4500
▁gallery	-4501
▁inaug	-4502
omes	-4503
▁brun	-4504
▁correspond	-4505
▁scen	-4506
ensis	-4507
▁communities	-4508
oli	-4509
▁boat	-4510
▁sites	-4511
▁distribution	-4512
▁sel	-4513
▁adult	-4514
▁chamber	-4515
▁bands	-4516
▁kaz	-4517
▁concept	-4518
▁integr	-4519
▁ll	-4520
▁fox	-4521
▁mess	-4522
fort	-4523
▁sources	-4524
▁expanded	-4525
opher	-4526
▁chemical	-4527
▁respectively	-4528
▁robin	-4529
▁mall	-4530
only	-4531
ois	-4532
▁bureau	-4533
▁fields	-4534
▁ross	-4535
▁ty	-4536
erbai	-4537
▁conv	-4538
▁peaked	-4539
▁note	-4540
▁whole	-4541
izes	-4542
▁incorporated	-4543
▁jes	-4544
▁publication	-4545
▁volleyball	-4546
▁intended	-4547
pet	-4548
▁crime	-4549
▁pione	-4550
▁stephen	-4551
bycidae	-4552
▁estimated	-4553
rolled	-4554
/0	-4555
▁dial	-4556
▁swe	-4557
oman	-4558
▁educational	-4559
aven	-4560
▁enzyme	-4561
▁finland	-4562
▁beng	-4563
▁magn	-4564
ori	-4565
▁wilson	-4566
lywood	-4567
een	-4568
king	-4569
▁qualifying	-4570
▁weight	-4571
▁kit	-4572
▁victorian	-4573
▁spect	-4574
▁guine	-4575
▁cha	-4576
▁austrian	-4577
▁our	-4578
▁nord	-4579
▁taylor	-4580
ugg	-4581
elve	-4582
▁stream	-4583
▁volume	-4584
▁deliver	-4585
▁azerbai	-4586
▁nucle	-4587
ibility	-4588
▁give	-4589
▁competitions	-4590
▁ast	-4591
▁mut	-4592
▁symp	-4593
▁chapel	-4594
enge	-4595
▁caused	-4596
▁premiered	-4597
▁mike	-4598
iny	-4599
▁attorney	-4600
▁asp	-4601
agar	-4602
▁lanc	-4603
aret	-4604
▁print	-4605
▁peninsula	-4606
▁cerambycidae	-4607
▁heat	-4608
▁supreme	-4609
▁quick	-4610
alle	-4611
▁ring	-4612
mi	-4613
▁emb	-4614
▁liga	-4615
ía	-4616
▁bey	-4617
ols	-4618
▁required	-4619
nia	-4620
▁davis	-4621
▁morn	-4622
▁directly	-4623
▁denmark	-4624
▁workers	-4625
▁malaysia	-4626
▁gran	-4627
▁metro	-4628
▁wy	-4629
▁ski	-4630
▁portion	-4631
▁notes	-4632
▁finals	-4633
▁danc	-4634
▁alternative	-4635
osh	-4636
▁share	-4637
rect	-4638
▁offered	-4639
▁basis	-4640
alo	-4641
▁offices	-4642
▁naz	-4643
▁agricultural	-4644
▁compris	-4645
lets	-4646
enez	-4647
▁cav	-4648
omot	-4649
▁hart	-4650
agen	-4651
cz	-4652
▁interior	-4653
▁sales	-4654
▁baronet	-4655
▁believed	-4656
url	-4657
▁impro	-4658
▁portuguese	-4659
▁operates	-4660
▁represents	-4661
▁kind	-4662
▁revival	-4663
▁kam	-4664
▁losing	-4665
▁exchange	-4666
▁shah	-4667
▁cancer	-4668
▁sail	-4669
▁pul	-4670
▁bott	-4671
▁leon	-4672
▁highly	-4673
▁elements	-4674
▁chosen	-4675
▁internet	-4676
▁larv	-4677
▁pav	-4678
▁rand	-4679
▁row	-4680
▁experience	-4681
▁existence	-4682
▁ali	-4683
▁nap	-4684
cles	-4685
vens	-4686
_0	-4687
▁$0	-4688
▁rud	-4689
▁settled	-4690
▁0000-0000.	-4691
▁taiwan	-4692
▁subt	-4693
▁belgium	-4694
uff	-4695
▁va	-4696
▁meters	-4697
where	-4698
incoln	-4699
▁dal	-4700
▁dates	-4701
▁twelve	-4702
rast	-4703
▁philosophy	-4704
▁growing	-4705
▁mp	-4706
ishes	-4707
▁nepal	-4708
tery	-4709
▁montreal	-4710
▁lett	-4711
athan	-4712
▁pradesh	-4713
aging	-4714
▁emper	-4715
▁chris	-4716
lah	-4717
aine	-4718
▁bought	-4719
eastern	-4720
ashion	-4721
▁hydro	-4722
▁kat	-4723
astic	-4724
ugal	-4725
▁productions	-4726
▁regions	-4727
▁buck	-4728
▁guitarist	-4729
▁piano	-4730
char	-4731
▁palace	-4732
▁lawyer	-4733
uro	-4734
▁extinct	-4735
icut	-4736
▁yet	-4737
▁convention	-4738
▁consult	-4739
▁ip	-4740
dale	-4741
pre	-4742
▁vocals	-4743
▁grows	-4744
▁pool	-4745
▁belgian	-4746
▁mollusk	-4747
▁jane	-4748
▁nfl	-4749
▁parliamentary	-4750
▁ranked	-4751
▁bod	-4752
▁£	-4753
▁rio	-4754
";	-4755
▁(0000–00	-4756
acent	-4757
▁communications	-4758
▁bowl	-4759
uan	-4760
general	-4761
cha	-4762
apore	-4763
▁samp	-4764
▁larvae	-4765
▁wed	-4766
▁hungarian	-4767
▁horn	-4768
▁traffic	-4769
▁expedition	-4770
eller	-4771
▁fal	-4772
▁indonesia	-4773
▁uc	-4774
▁exhibition	-4775
agn	-4776
▁always	-4777
▁forced	-4778
▁kl	-4779
▁eag	-4780
eding	-4781
▁plans	-4782
▁steve	-4783
▁alph	-4784
▁recordings	-4785
▁produce	-4786
▁wick	-4787
▁ltd	-4788
▁hans	-4789
▁doubles	-4790
▁scene	-4791
eld	-4792
bul	-4793
amo	-4794
iest	-4795
▁debuted	-4796
▁alab	-4797
▁carry	-4798
cont	-4799
▁fit	-4800
▁proposed	-4801
▁fab	-4802
▁distributed	-4803
adi	-4804
▁auth	-4805
▁publisher	-4806
▁job	-4807
▁physical	-4808
▁levels	-4809
▁playoff	-4810
▁cabinet	-4811
▁sides	-4812
▁00000	-4813
▁etc	-4814
▁problems	-4815
▁enco	-4816
▁drive	-4817
gow	-4818
▁newly	-4819
ulated	-4820
▁words	-4821
wealth	-4822
oted	-4823
stan	-4824
▁manchester	-4825
▁holy	-4826
isa	-4827
▁residential	-4828
▁leaf	-4829
▁$000	-4830
asa	-4831
▁quality	-4832
▁amount	-4833
▁lincoln	-4834
▁therefore	-4835
▁conducted	-4836
ui	-4837
ibb	-4838
▁locations	-4839
iva	-4840
asty	-4841
music	-4842
▁slightly	-4843
pool	-4844
▁municipalities	-4845
▁hero	-4846
▁lyn	-4847
▁claimed	-4848
▁bright	-4849
▁scheduled	-4850
▁spirit	-4851
▁reaching	-4852
fo	-4853
▁comment	-4854
▁din	-4855
oslav	-4856
▁forewings	-4857
▁organizations	-4858
▁starred	-4859
▁fix	-4860
onso	-4861
▁independence	-4862
▁applied	-4863
▁percent	-4864
lar	-4865
▁gor	-4866
▁gang	-4867
▁johann	-4868
▁prevent	-4869
uri	-4870
▁imperial	-4871
eh	-4872
▁waters	-4873
▁shore	-4874
▁adjacent	-4875
▁defending	-4876
▁programming	-4877
▁challenge	-4878
ān	-4879
▁agriculture	-4880
▁factory	-4881
▁commonwealth	-4882
▁gymn	-4883
▁accident	-4884
nat	-4885
claim	-4886
▁archae	-4887
▁pope	-4888
▁adults	-4889
▁pas	-4890
▁marked	-4891
iced	-4892
amilton	-4893
▁peru	-4894
▁circuit	-4895
▁nik	-4896
▁swimming	-4897
▁resigned	-4898
▁spok	-4899
▁venez	-4900
▁mathematics	-4901
din	-4902
inger	-4903
▁singapore	-4904
▁merch	-4905
▁diplom	-4906
▁vess	-4907
▁rule	-4908
▁cars	-4909
▁sang	-4910
▁target	-4911
▁infantry	-4912
▁decision	-4913
tim	-4914
▁letter	-4915
▁welsh	-4916
▁Ł	-4917
▁runner	-4918
▁adopted	-4919
urday	-4920
▁charge	-4921
▁astr	-4922
yes	-4923
ín	-4924
▁alabama	-4925
dra	-4926
dist	-4927
udi	-4928
▁trees	-4929
▁rober	-4930
▁emperor	-4931
▁orth	-4932
▁belongs	-4933
▁dublin	-4934
▁defender	-4935
▁invent	-4936
▁walter	-4937
▁ky	-4938
▁han	-4939
▁ridge	-4940
mel	-4941
▁reference	-4942
▁entitled	-4943
uts	-4944
▁glass	-4945
ef	-4946
▁indoor	-4947
▁returning	-4948
▁bangl	-4949
▁lewis	-4950
▁couple	-4951
▁fashion	-4952
▁mississ	-4953
▁crew	-4954
agan	-4955
▁confir	-4956
▁types	-4957
▁communist	-4958
what	-4959
▁defeat	-4960
▁lith	-4961
▁advert	-4962
sr	-4963
pson	-4964
iately	-4965
▁begins	-4966
rupt	-4967
mouth	-4968
▁ax	-4969
ista	-4970
▁0000:	-4971
▁initi	-4972
▁si	-4973
▁destroyed	-4974
▁fred	-4975
▁guinea	-4976
▁initial	-4977
▁connecticut	-4978
▁#0	-4979
▁letters	-4980
▁landsc	-4981
zi	-4982
▁liver	-4983
▁musicians	-4984
wise	-4985
▁blues	-4986
▁entrance	-4987
▁blood	-4988
▁parties	-4989
cr	-4990
▁athletes	-4991
▁vel	-4992
▁É	-4993
▁competing	-4994
▁fifa	-4995
▁slovak	-4996
▁writers	-4997
▁trip	-4998
▁publications	-4999
ening	-5000
▁alliance	-5001
▁providing	-5002
▁trial	-5003
▁inspired	-5004
▁removed	-5005
▁reflect	-5006
▁(0000–0000).	-5007
law	-5008
aux	-5009
▁kings	-5010
spec	-5011
▁classes	-5012
▁presidential	-5013
▁creation	-5014
lement	-5015
▁lanka	-5016
ippi	-5017
▁dak	-5018
▁associate	-5019
▁fail	-5020
▁fleet	-5021
▁cel	-5022
▁hamilton	-5023
▁(0000-0000)	-5024
▁hungary	-5025
▁hat	-5026
▁experiment	-5027
'.	-5028
ito	-5029
ressed	-5030
▁pictures	-5031
pts	-5032
▁mol	-5033
ailand	-5034
km	-5035
organ	-5036
ampton	-5037
die	-5038
▁pair	-5039
▁arrest	-5040
ables	-5041
otyp	-5042
ked	-5043
rep	-5044
▁frederick	-5045
lon	-5046
▁simply	-5047
▁portugal	-5048
rele	-5049
/0000	-5050
▁registered	-5051
▁fought	-5052
dec	-5053
▁institution	-5054
▁consisting	-5055
▁larg	-5056
▁chur	-5057
▁snow	-5058
▁toky	-5059
▁immigr	-5060
▁equip	-5061
▁analysis	-5062
▁:	-5063
under	-5064
▁positions	-5065
▁protest	-5066
▁lists	-5067
wart	-5068
burn	-5069
▁vin	-5070
▁defeating	-5071
▁content	-5072
sis	-5073
▁fern	-5074
former	-5075
▁citizens	-5076
▁azerbaijan	-5077
▁search	-5078
▁ern	-5079
rus	-5080
rell	-5081
▁lov	-5082
▁distinguished	-5083
▁pir	-5084
▁ton	-5085
▁defense	-5086
▁salt	-5087
hou	-5088
uther	-5089
▁unique	-5090
▁squadron	-5091
▁ambass	-5092
hana	-5093
▁attend	-5094
sec	-5095
▁borders	-5096
oba	-5097
miss	-5098
aro	-5099
▁planned	-5100
▁roy	-5101
▁ukraine	-5102
anna	-5103
▁tas	-5104
▁legend	-5105
▁affiliated	-5106
keeper	-5107
oded	-5108
▁acts	-5109
▁constant	-5110
▁passes	-5111
▁glacier	-5112
sal	-5113
▁aband	-5114
▁venezuel	-5115
▁nom	-5116
▁marath	-5117
▁thailand	-5118
▁sky	-5119
ibly	-5120
▁stands	-5121
▁clark	-5122
▁knight	-5123
ionally	-5124
borough	-5125
▁discuss	-5126
▁converted	-5127
▁improv	-5128
▁reve	-5129
▁determin	-5130
▁thor	-5131
▁cases	-5132
▁ukrainian	-5133
ez	-5134
▁lam	-5135
▁favor	-5136
bra	-5137
inder	-5138
▁ug	-5139
▁yorkshire	-5140
▁mort	-5141
rat	-5142
▁economics	-5143
▁true	-5144
)"	-5145
▁foss	-5146
▁arms	-5147
estic	-5148
▁lad	-5149
olved	-5150
▁goes	-5151
▁trained	-5152
arest	-5153
ogen	-5154
▁simon	-5155
▁vienna	-5156
▁canal	-5157
song	-5158
▁disp	-5159
▁bull	-5160
▁edin	-5161
gh	-5162
urance	-5163
▁comic	-5164
▁emplo	-5165
▁sz	-5166
ardo	-5167
▁positive	-5168
▁suburb	-5169
▁branc	-5170
▁passenger	-5171
ieval	-5172
ivals	-5173
▁tokyo	-5174
▁jump	-5175
▁kg	-5176
▁maz	-5177
enh	-5178
▁antonio	-5179
▁volunte	-5180
▁dol	-5181
onents	-5182
orf	-5183
▁juan	-5184
lahoma	-5185
▁medium	-5186
▁specif	-5187
mers	-5188
▁locality	-5189
▁giving	-5190
ocated	-5191
▁ending	-5192
▁muslim	-5193
▁bring	-5194
▁sid	-5195
▁purpose	-5196
asht	-5197
load	-5198
stream	-5199
▁electronic	-5200
room	-5201
▁immediately	-5202
▁satell	-5203
inter	-5204
▁soundtrack	-5205
kar	-5206
és	-5207
▁consecutive	-5208
▁glas	-5209
esc	-5210
▁riding	-5211
▁novels	-5212
▁dors	-5213
▁crim	-5214
selves	-5215
rated	-5216
▁activity	-5217
▁equipment	-5218
▁morning	-5219
▁themselves	-5220
▁bats	-5221
▁om	-5222
▁historian	-5223
ption	-5224
seud	-5225
▁hip	-5226
▁worldwide	-5227
outs	-5228
▁identified	-5229
▁ow	-5230
▁growth	-5231
▁fruit	-5232
▁mobile	-5233
from	-5234
▁moon	-5235
▁cooper	-5236
erto	-5237
▁wolf	-5238
anks	-5239
▁pitts	-5240
▁acid	-5241
▁composition	-5242
▁maint	-5243
oto	-5244
▁andre	-5245
ropical	-5246
iles	-5247
▁organisation	-5248
▁cyp	-5249
▁licensed	-5250
▁medieval	-5251
roke	-5252
wich	-5253
icial	-5254
▁permanent	-5255
▁northwestern	-5256
▁colour	-5257
▁mississippi	-5258
▁mans	-5259
▁freed	-5260
▁largely	-5261
may	-5262
▁nich	-5263
▁canton	-5264
▁oklahoma	-5265
▁translated	-5266
▁josé	-5267
▁hampshire	-5268
elle	-5269
owned	-5270
▁vietnam	-5271
▁chain	-5272
▁extra	-5273
▁ni	-5274
▁sad	-5275
state	-5276
▁aviation	-5277
place	-5278
▁lakes	-5279
▁plate	-5280
▁edinburgh	-5281
top	-5282
āb	-5283
▁launch	-5284
▁coordin	-5285
kov	-5286
roit	-5287
▁sunday	-5288
▁protection	-5289
▁dim	-5290
▁restaurant	-5291
fall	-5292
▁machine	-5293
▁granted	-5294
▁arkansas	-5295
inae	-5296
▁producing	-5297
▁(0.0	-5298
▁dram	-5299
▁sain	-5300
orter	-5301
jab	-5302
▁downtown	-5303
▁contain	-5304
▁lang	-5305
▁miller	-5306
▁gord	-5307
▁rhy	-5308
▁might	-5309
▁injury	-5310
▁roads	-5311
▁dynasty	-5312
▁declared	-5313
▁conservation	-5314
▁derby	-5315
▁veter	-5316
▁figures	-5317
▁jacob	-5318
wall	-5319
ographic	-5320
onent	-5321
▁fant	-5322
built	-5323
gn	-5324
▁stor	-5325
▁gon	-5326
rees	-5327
istol	-5328
iful	-5329
▁norm	-5330
▁enough	-5331
ét	-5332
▁harry	-5333
elected	-5334
▁straight	-5335
.0000	-5336
usion	-5337
▁alberta	-5338
ands	-5339
▁occurred	-5340
master	-5341
ighter	-5342
▁touch	-5343
oration	-5344
▁wheel	-5345
▁shape	-5346
▁(00.0	-5347
▁monument	-5348
▁custom	-5349
▁resources	-5350
▁difficult	-5351
umes	-5352
▁lib	-5353
fc	-5354
▁recip	-5355
▁churches	-5356
ska	-5357
▁buff	-5358
▁maur	-5359
▁banks	-5360
▁ends	-5361
▁challeng	-5362
▁environmental	-5363
▁sed	-5364
ledge	-5365
olas	-5366
▁locomot	-5367
▁manusc	-5368
aver	-5369
▁supporting	-5370
▁0000/00	-5371
▁kur	-5372
▁bapt	-5373
▁singing	-5374
▁howard	-5375
▁soul	-5376
▁0,000.	-5377
▁clay	-5378
▁portra	-5379
▁divisions	-5380
rier	-5381
antic	-5382
▁samuel	-5383
lad	-5384
▁elimin	-5385
▁orient	-5386
agues	-5387
▁diego	-5388
▁exclus	-5389
▁brian	-5390
▁fell	-5391
olo	-5392
▁summit	-5393
én	-5394
▁patrick	-5395
ād	-5396
▁puerto	-5397
▁candidates	-5398
▁lux	-5399
▁daughters	-5400
stad	-5401
▁reports	-5402
▁anthony	-5403
▁defined	-5404
long	-5405
du	-5406
angel	-5407
finals	-5408
ester	-5409
▁beyond	-5410
▁impact	-5411
▁standing	-5412
▁py	-5413
▁substit	-5414
lec	-5415
ayan	-5416
▁edited	-5417
▁colombia	-5418
▁pin	-5419
nik	-5420
ellig	-5421
▁repe	-5422
▁inner	-5423
zen	-5424
▁coastal	-5425
iot	-5426
▁morris	-5427
rum	-5428
▁flying	-5429
▁leadership	-5430
ogy	-5431
▁frequently	-5432
oa	-5433
▁colonial	-5434
oul	-5435
profit	-5436
▁concent	-5437
anes	-5438
which	-5439
▁adap	-5440
▁uncle	-5441
▁iraq	-5442
▁rib	-5443
▁tam	-5444
fm	-5445
▁visual	-5446
▁freestyle	-5447
gi	-5448
▁contained	-5449
bishop	-5450
▁simple	-5451
▁arc	-5452
▁senator	-5453
▁cause	-5454
▁harvard	-5455
▁monaster	-5456
▁terminus	-5457
opal	-5458
▁gives	-5459
▁nickn	-5460
▁accepted	-5461
emy	-5462
▁treatment	-5463
▁humans	-5464
▁consider	-5465
thing	-5466
▁argentine	-5467
▁rod	-5468
▁courses	-5469
▁physics	-5470
▁yug	-5471
box	-5472
rec	-5473
▁remix	-5474
▁starts	-5475
▁hair	-5476
gas	-5477
▁recre	-5478
▁nev	-5479
▁franch	-5480
▁burg	-5481
▁planning	-5482
▁ambassador	-5483
▁fat	-5484
▁piece	-5485
▁conditions	-5486
▁lac	-5487
▁subfamily	-5488
▁superv	-5489
▁maine	-5490
▁deleg	-5491
▁require	-5492
▁painted	-5493
▁directors	-5494
▁critics	-5495
▁effects	-5496
▁collected	-5497
▁wit	-5498
▁partnership	-5499
eries	-5500
▁divers	-5501
ante	-5502
▁duo	-5503
▁statistics	-5504
▁semif	-5505
▁lane	-5506
▁mam	-5507
portun	-5508
umar	-5509
▁likely	-5510
▁cad	-5511
▁dating	-5512
▁increased	-5513
▁contributed	-5514
▁southeastern	-5515
▁reign	-5516
▁dat	-5517
▁kid	-5518
ector	-5519
▁peer	-5520
league	-5521
yard	-5522
▁generation	-5523
▁raf	-5524
uma	-5525
▁twin	-5526
▁implement	-5527
▁sens	-5528
hammad	-5529
▁eighth	-5530
enian	-5531
▁jord	-5532
anger	-5533
▁defence	-5534
▁honour	-5535
▁seek	-5536
▁fu	-5537
▁thirty	-5538
▁credited	-5539
▁classified	-5540
▁residence	-5541
rome	-5542
▁ay	-5543
ager	-5544
▁pilot	-5545
she	-5546
▁courts	-5547
▁sle	-5548
▁driver	-5549
▁tail	-5550
▁knock	-5551
▁designer	-5552
▁stores	-5553
▁disease	-5554
▁holding	-5555
▁sche	-5556
▁pattern	-5557
level	-5558
▁opportun	-5559
ghan	-5560
▁bangladesh	-5561
▁brid	-5562
▁selection	-5563
▁value	-5564
▁yards	-5565
osph	-5566
▁dick	-5567
▁cow	-5568
▁rear	-5569
▁ford	-5570
uccess	-5571
▁suppl	-5572
bach	-5573
▁eye	-5574
=0	-5575
▁lig	-5576
▁bond	-5577
▁compl	-5578
lers	-5579
iants	-5580
▁peters	-5581
pm	-5582
▁price	-5583
▁businessman	-5584
▁drafted	-5585
▁bart	-5586
▁animals	-5587
ér	-5588
father	-5589
▁picture	-5590
▁nova	-5591
▁appoint	-5592
▁finance	-5593
▁basin	-5594
▁relatively	-5595
oud	-5596
▁column	-5597
▁closely	-5598
▁background	-5599
▁kon	-5600
▁fans	-5601
▁cinema	-5602
▁eas	-5603
▁cass	-5604
▁influence	-5605
hai	-5606
ello	-5607
hard	-5608
▁commissioner	-5609
rock	-5610
atus	-5611
▁detroit	-5612
ijing	-5613
▁louisiana	-5614
▁houston	-5615
▁nigeria	-5616
iab	-5617
▁commons	-5618
▁annually	-5619
▁receiving	-5620
▁graduating	-5621
▁serbia	-5622
▁springs	-5623
▁subdiv	-5624
▁pieces	-5625
hers	-5626
▁jay	-5627
▁alone	-5628
▁ry	-5629
',	-5630
▁enjo	-5631
▁application	-5632
iller	-5633
▁tony	-5634
▁glasgow	-5635
apes	-5636
iba	-5637
▁outstanding	-5638
▁antarctic	-5639
▁poll	-5640
▁greatest	-5641
▁yugoslav	-5642
uda	-5643
▁normal	-5644
▁continue	-5645
▁clar	-5646
▁kick	-5647
san	-5648
▁bath	-5649
▁paintings	-5650
▁laid	-5651
▁adam	-5652
has	-5653
▁depth	-5654
iami	-5655
▁nel	-5656
▁eleven	-5657
shaped	-5658
▁tier	-5659
▁domestic	-5660
▁relegated	-5661
door	-5662
▁attention	-5663
season	-5664
▁oblast	-5665
▁guy	-5666
▁saturday	-5667
holm	-5668
▁unlike	-5669
▁mining	-5670
▁thous	-5671
▁wr	-5672
lie	-5673
ression	-5674
oria	-5675
▁animal	-5676
▁laure	-5677
▁singh	-5678
uccessful	-5679
▁examples	-5680
▁atlanta	-5681
▁treas	-5682
ikh	-5683
▁incumb	-5684
▁covering	-5685
▁existing	-5686
▁agreement	-5687
▁crow	-5688
▁diameter	-5689
▁virt	-5690
onse	-5691
▁specifically	-5692
▁reading	-5693
▁bann	-5694
▁measure	-5695
▁critical	-5696
▁learning	-5697
after	-5698
▁gate	-5699
uted	-5700
▁steam	-5701
▁think	-5702
▁participate	-5703
this	-5704
▁retail	-5705
▁compound	-5706
▁ceremony	-5707
▁image	-5708
▁literacy	-5709
▁ranking	-5710
▁paraly	-5711
icted	-5712
▁belonging	-5713
veland	-5714
non	-5715
▁bag	-5716
ching	-5717
▁becomes	-5718
▁snails	-5719
▁structures	-5720
istics	-5721
▁leave	-5722
van	-5723
▁douglas	-5724
▁coached	-5725
▁biggest	-5726
prod	-5727
▁milan	-5728
▁anderson	-5729
▁things	-5730
▁serbian	-5731
aza	-5732
zes	-5733
▁renov	-5734
▁condition	-5735
▁losses	-5736
▁safety	-5737
mine	-5738
died	-5739
▁allows	-5740
vement	-5741
phe	-5742
▁mom	-5743
iti	-5744
▁suffered	-5745
arent	-5746
▁slow	-5747
▁confirmed	-5748
nov	-5749
▁allen	-5750
▁barn	-5751
ör	-5752
set	-5753
▁bit	-5754
▁reservoir	-5755
▁models	-5756
);	-5757
abil	-5758
▁cler	-5759
▁wet	-5760
unds	-5761
▁officers	-5762
▁subst	-5763
▁elementary	-5764
note	-5765
▁intellig	-5766
▁sole	-5767
▁threatened	-5768
▁unsuccessful	-5769
▁movies	-5770
▁legislature	-5771
▁subtropical	-5772
▁beijing	-5773
▁index	-5774
▁prep	-5775
▁fishing	-5776
▁occupied	-5777
▁alfred	-5778
mingham	-5779
▁tribe	-5780
igen	-5781
▁northeastern	-5782
▁sections	-5783
fast	-5784
oni	-5785
▁gray	-5786
rovers	-5787
▁alexand	-5788
▁sets	-5789
▁regul	-5790
▁consum	-5791
▁symbol	-5792
▁hosts	-5793
▁prefect	-5794
▁evidence	-5795
▁lawrence	-5796
▁christmas	-5797
▁margin	-5798
▁hug	-5799
▁weather	-5800
▁0000–00,	-5801
▁rid	-5802
▁pittsburgh	-5803
▁gam	-5804
▁fisher	-5805
▁talent	-5806
▁institutions	-5807
▁fried	-5808
▁rapid	-5809
▁punjab	-5810
▁counter	-5811
▁kan	-5812
▁philip	-5813
hill	-5814
lan	-5815
▁flowering	-5816
▁spons	-5817
orer	-5818
alia	-5819
▁silent	-5820
▁athlete	-5821
▁ue	-5822
▁materials	-5823
omm	-5824
▁hawai	-5825
▁tig	-5826
utt	-5827
▁typical	-5828
enny	-5829
▁ceo	-5830
▁matthe	-5831
▁actually	-5832
vis	-5833
elli	-5834
▁phill	-5835
cd	-5836
▁fully	-5837
▁plus	-5838
su	-5839
▁recover	-5840
▁alger	-5841
▁lud	-5842
▁cleveland	-5843
▁notably	-5844
▁kenya	-5845
▁exam	-5846
▁apparent	-5847
▁arrived	-5848
▁intersection	-5849
▁abandoned	-5850
▁shrub	-5851
▁symph	-5852
▁basic	-5853
released	-5854
ennial	-5855
▁geomet	-5856
▁leaders	-5857
▁birds	-5858
▁patri	-5859
ify	-5860
▁extensive	-5861
▁salv	-5862
nan	-5863
▁establishment	-5864
▁miami	-5865
▁satellite	-5866
▁underground	-5867
ando	-5868
▁relay	-5869
▁contributing	-5870
▁contributions	-5871
▁terminal	-5872
oh	-5873
▁seconds	-5874
endar	-5875
▁subsidi	-5876
▁controvers	-5877
▁sask	-5878
▁ecu	-5879
▁session	-5880
south	-5881
avi	-5882
▁excell	-5883
▁gulf	-5884
iform	-5885
▁pseud	-5886
▁interact	-5887
▁masters	-5888
▁adapt	-5889
reng	-5890
▁hands	-5891
cons	-5892
▁confl	-5893
▁receive	-5894
bourg	-5895
▁hors	-5896
▁confed	-5897
rob	-5898
▁autonom	-5899
gor	-5900
▁planet	-5901
▁mouth	-5902
▁colonel	-5903
four	-5904
▁mck	-5905
iri	-5906
omy	-5907
▁mes	-5908
▁increase	-5909
▁eld	-5910
aks	-5911
▁cher	-5912
▁utah	-5913
▁southwestern	-5914
▁strip	-5915
▁possess	-5916
▁stood	-5917
▁paralymp	-5918
▁physician	-5919
▁subsequent	-5920
pat	-5921
sex	-5922
▁guide	-5923
eur	-5924
▁captured	-5925
▁kos	-5926
▁compared	-5927
▁warsaw	-5928
▁invited	-5929
:#	-5930
▁gay	-5931
▁cold	-5932
▁honorary	-5933
▁walls	-5934
▁ethnic	-5935
▁chen	-5936
gradu	-5937
▁promote	-5938
umin	-5939
▁birmingham	-5940
▁dakota	-5941
▁qualification	-5942
▁adapted	-5943
▁chand	-5944
▁botan	-5945
▁minim	-5946
si	-5947
aling	-5948
▁universities	-5949
aments	-5950
▁boundary	-5951
▁presence	-5952
▁compar	-5953
▁collections	-5954
▁archbishop	-5955
opter	-5956
▁nag	-5957
▁shared	-5958
▁degrees	-5959
imet	-5960
▁climate	-5961
▁request	-5962
▁crossing	-5963
enz	-5964
▁anna	-5965
kes	-5966
▁tick	-5967
enburg	-5968
▁vas	-5969
▁israeli	-5970
▁appearing	-5971
▁gol	-5972
▁admitted	-5973
▁bulgar	-5974
▁dream	-5975
▁karl	-5976
▁sale	-5977
▁bottom	-5978
▁gordon	-5979
▁pic	-5980
▁supply	-5981
▁brigade	-5982
avel	-5983
▁chess	-5984
eta	-5985
▁cous	-5986
▁architectural	-5987
▁são	-5988
▁regularly	-5989
▁myth	-5990
spe	-5991
▁marie	-5992
▁hour	-5993
▁branches	-5994
▁details	-5995
▁pel	-5996
▁walker	-5997
▁strike	-5998
▁employed	-5999
otic	-6000
▁lod	-6001
▁gardens	-6002
▁try	-6003
▁idea	-6004
▁drummer	-6005
liga	-6006
▁moore	-6007
▁monastery	-6008
▁quickly	-6009
▁rounds	-6010
▁sv	-6011
▁margaret	-6012
▁standards	-6013
ouver	-6014
▁expans	-6015
pop	-6016
▁resort	-6017
▁teen	-6018
▁bund	-6019
▁abbey	-6020
colspan	-6021
▁astronom	-6022
▁soldiers	-6023
▁$00,000.	-6024
ancouver	-6025
▁core	-6026
sea	-6027
▁ecuador	-6028
▁applications	-6029
alam	-6030
▁lev	-6031
▁progressive	-6032
▁dall	-6033
▁sier	-6034
▁bears	-6035
▁completely	-6036
▁kilometers	-6037
igo	-6038
osis	-6039
▁jose	-6040
orph	-6041
▁pink	-6042
▁000-	-6043
▁pomer	-6044
2.	-6045
▁survived	-6046
pp	-6047
▁strugg	-6048
olia	-6049
▁knowledge	-6050
▁pear	-6051
▁hope	-6052
▁functions	-6053
▁memory	-6054
ht	-6055
hus	-6056
▁caps	-6057
"|	-6058
▁kept	-6059
▁butterfly	-6060
▁dro	-6061
▁prepar	-6062
▁0"	-6063
dal	-6064
▁mond	-6065
▁delhi	-6066
ingham	-6067
▁og	-6068
▁hindwings	-6069
▁troops	-6070
▁slovenia	-6071
▁noble	-6072
▁constitution	-6073
▁athens	-6074
▁roc	-6075
▁opposition	-6076
uster	-6077
rete	-6078
include	-6079
▁elder	-6080
▁submar	-6081
▁wine	-6082
▁worth	-6083
ascar	-6084
▁rice	-6085
▁americ	-6086
posed	-6087
▁afghan	-6088
▁sabha	-6089
ache	-6090
▁congreg	-6091
▁feel	-6092
▁railways	-6093
▁pyr	-6094
garian	-6095
▁admir	-6096
var	-6097
▁romanian	-6098
iable	-6099
jar	-6100
▁vancouver	-6101
00,	-6102
edia	-6103
▁moist	-6104
▁alan	-6105
apolis	-6106
▁innings	-6107
▁entirely	-6108
otte	-6109
▁videos	-6110
▁princess	-6111
erc	-6112
▁defensive	-6113
▁roberts	-6114
ims	-6115
▁ghana	-6116
▁paralle	-6117
▁wooden	-6118
▁transportation	-6119
▁investment	-6120
arus	-6121
▁barcel	-6122
▁passing	-6123
▁tort	-6124
▁cole	-6125
run	-6126
▁bog	-6127
march	-6128
▁+	-6129
ovo	-6130
▁approved	-6131
fish	-6132
▁briefly	-6133
▁efforts	-6134
timore	-6135
▁audience	-6136
dles	-6137
▁statistical	-6138
▁armed	-6139
▁bil	-6140
▁bak	-6141
▁centuries	-6142
▁outer	-6143
▁platforms	-6144
▁wrestling	-6145
▁translation	-6146
▁produces	-6147
yo	-6148
best	-6149
▁weap	-6150
onlyinclude	-6151
estone	-6152
▁fighting	-6153
▁heads	-6154
▁necess	-6155
▁mind	-6156
▁trinity	-6157
▁lithu	-6158
tec	-6159
acts	-6160
▁pian	-6161
▁hyp	-6162
▁ordered	-6163
ābād	-6164
▁freedom	-6165
▁sul	-6166
▁creating	-6167
▁flood	-6168
chin	-6169
trans	-6170
▁collaboration	-6171
▁phd	-6172
▁whether	-6173
▁franchise	-6174
▁increasing	-6175
▁merchant	-6176
▁domain	-6177
▁economy	-6178
):	-6179
▁protected	-6180
wor	-6181
▁incumbent	-6182
▁socialist	-6183
▁0:	-6184
▁congo	-6185
▁richmond	-6186
▁artistic	-6187
▁bulgaria	-6188
▁battal	-6189
formerly	-6190
icient	-6191
▁focused	-6192
▁bold	-6193
friend	-6194
pol	-6195
ahn	-6196
acht	-6197
▁wildlife	-6198
roc	-6199
night	-6200
adow	-6201
▁response	-6202
emble	-6203
lines	-6204
▁leban	-6205
▁beautiful	-6206
▁comprises	-6207
▁streets	-6208
yon	-6209
▁eric	-6210
▁unus	-6211
▁possibly	-6212
▁address	-6213
▁pitched	-6214
▁allmusic	-6215
▁describes	-6216
▁broke	-6217
apped	-6218
orship	-6219
▁opposite	-6220
▁nad	-6221
itable	-6222
▁persons	-6223
▁ninth	-6224
▁cot	-6225
▁brooklyn	-6226
▁speaker	-6227
▁bid	-6228
▁gill	-6229
▁bonus	-6230
▁sor	-6231
▁passengers	-6232
▁venue	-6233
▁dave	-6234
ilst	-6235
▁roughly	-6236
▁vinc	-6237
ais	-6238
▁poems	-6239
teenth	-6240
cia	-6241
▁seattle	-6242
▁routes	-6243
▁teachers	-6244
atche	-6245
▁arranged	-6246
▁visited	-6247
chief	-6248
▁cells	-6249
▁fan	-6250
▁calendar	-6251
▁handball	-6252
▁scar	-6253
▁budd	-6254
▁alp	-6255
cat	-6256
▁hud	-6257
▁flower	-6258
▁comics	-6259
▁nuclear	-6260
▁uefa	-6261
▁choice	-6262
▁carlos	-6263
fin	-6264
etic	-6265
uits	-6266
▁extension	-6267
▁billion	-6268
▁ing	-6269
graduate	-6270
▁monte	-6271
▁minute	-6272
▁Š	-6273
▁surrounded	-6274
▁tie	-6275
▁veget	-6276
▁barcelona	-6277
▁fold	-6278
▁separated	-6279
▁prague	-6280
▁laws	-6281
▁ordained	-6282
wal	-6283
▁sie	-6284
▁vik	-6285
key	-6286
nie	-6287
sur	-6288
▁ng	-6289
iber	-6290
ici	-6291
▁outdoor	-6292
▁migr	-6293
▁baltimore	-6294
▁barr	-6295
▁wear	-6296
▁studying	-6297
hum	-6298
▁munich	-6299
ares	-6300
utional	-6301
▁reality	-6302
▁expected	-6303
▁solid	-6304
▁reaction	-6305
apur	-6306
▁execut	-6307
▁disapp	-6308
asi	-6309
▁synd	-6310
iques	-6311
▁insurance	-6312
handed	-6313
▁visit	-6314
▁mack	-6315
▁hollywood	-6316
▁mak	-6317
▁juris	-6318
▁asked	-6319
▁vehicle	-6320
▁campbell	-6321
▁madrid	-6322
▁aster	-6323
▁audio	-6324
▁reasons	-6325
▁restored	-6326
▁ment	-6327
▁engaged	-6328
orig	-6329
▁reduced	-6330
▁license	-6331
▁dh	-6332
▁till	-6333
final	-6334
▁preserv	-6335
▁demonstr	-6336
▁tip	-6337
▁wol	-6338
▁sung	-6339
▁seed	-6340
▁anch	-6341
▁eliminated	-6342
▁hamlet	-6343
▁alle	-6344
▁creative	-6345
▁approach	-6346
▁advoc	-6347
▁ric	-6348
▁tow	-6349
mid	-6350
▁resc	-6351
▁asc	-6352
▁operate	-6353
ivity	-6354
ige	-6355
▁rif	-6356
▁nash	-6357
▁resist	-6358
▁hell	-6359
▁shir	-6360
atherine	-6361
via	-6362
▁sugar	-6363
▁descent	-6364
▁chronic	-6365
▁sprint	-6366
▁grad	-6367
▁inaugural	-6368
▁authorities	-6369
▁fict	-6370
▁goalkeeper	-6371
▁coaching	-6372
ographical	-6373
▁venezuela	-6374
▁users	-6375
▁bernard	-6376
▁filmed	-6377
onsored	-6378
iop	-6379
▁whilst	-6380
iac	-6381
▁wanted	-6382
▁recognition	-6383
▁tang	-6384
▁correct	-6385
esters	-6386
▁fran	-6387
zer	-6388
▁broken	-6389
acon	-6390
▁resulting	-6391
▁innov	-6392
▁heavily	-6393
oured	-6394
▁metre	-6395
▁councill	-6396
eck	-6397
ère	-6398
▁nelson	-6399
rist	-6400
▁install	-6401
▁encour	-6402
▁|	-6403
▁installed	-6404
iidae	-6405
▁membership	-6406
mill	-6407
▁arn	-6408
▁streng	-6409
▁maintained	-6410
german	-6411
!"	-6412
build	-6413
odox	-6414
▁stret	-6415
▁cultiv	-6416
kan	-6417
▁jordan	-6418
▁bulgarian	-6419
▁portray	-6420
▁tan	-6421
▁kw	-6422
▁thick	-6423
eenth	-6424
▁resulted	-6425
▁skating	-6426
▁lands	-6427
▁lp	-6428
ologies	-6429
oker	-6430
▁comed	-6431
▁vehicles	-6432
▁potential	-6433
rh	-6434
▁adela	-6435
0"	-6436
illo	-6437
▁matt	-6438
▁maced	-6439
▁factor	-6440
rim	-6441
▁quite	-6442
aman	-6443
▁surf	-6444
including	-6445
ration	-6446
dd	-6447
▁brief	-6448
▁specim	-6449
ido	-6450
▁marketing	-6451
tha	-6452
▁successfully	-6453
▁journey	-6454
▁mason	-6455
▁isol	-6456
▁synthe	-6457
▁serious	-6458
▁connection	-6459
iar	-6460
▁rein	-6461
▁setting	-6462
prise	-6463
▁orch	-6464
▁bush	-6465
▁kol	-6466
▁recomm	-6467
zh	-6468
▁motion	-6469
▁batt	-6470
▁spin	-6471
▁aber	-6472
▁write	-6473
▁angl	-6474
▁transform	-6475
▁mahar	-6476
▁leagues	-6477
▁accompan	-6478
▁marathon	-6479
leton	-6480
usa	-6481
oct	-6482
▁expansion	-6483
▁classification	-6484
▁circle	-6485
apers	-6486
▁communication	-6487
▁boliv	-6488
mic	-6489
▁jama	-6490
▁actors	-6491
▁descend	-6492
▁graph	-6493
▁homes	-6494
aba	-6495
▁nevada	-6496
grade	-6497
opes	-6498
who	-6499
▁manufacturing	-6500
▁voted	-6501
▁portland	-6502
▁liverpool	-6503
▁fung	-6504
▁drink	-6505
tan	-6506
▁developing	-6507
length	-6508
▁phase	-6509
▁franklin	-6510
owo	-6511
▁spoken	-6512
oka	-6513
▁lip	-6514
▁climb	-6515
▁austin	-6516
isions	-6517
▁roger	-6518
▁landmark	-6519
▁resign	-6520
▁charter	-6521
▁saints	-6522
▁existed	-6523
▁hang	-6524
▁iceland	-6525
ław	-6526
▁spots	-6527
▁tournaments	-6528
atin	-6529
rah	-6530
point	-6531
▁ja	-6532
▁pant	-6533
</	-6534
▁subsidiary	-6535
▁problem	-6536
▁mey	-6537
▁surg	-6538
▁touring	-6539
▁influenced	-6540
▁bib	-6541
rical	-6542
▁arrested	-6543
▁crater	-6544
▁episc	-6545
▁protect	-6546
▁graham	-6547
boy	-6548
▁plain	-6549
▁chapter	-6550
▁scholarship	-6551
▁pierre	-6552
▁engines	-6553
▁croatia	-6554
▁stewart	-6555
▁plot	-6556
sterdam	-6557
▁abc	-6558
▁ability	-6559
▁soph	-6560
rig	-6561
▁christopher	-6562
▁stayed	-6563
▁pros	-6564
▁aggreg	-6565
▁democrat	-6566
▁credit	-6567
▁hired	-6568
alis	-6569
▁russell	-6570
▁selling	-6571
▁pharm	-6572
▁pond	-6573
▁connects	-6574
▁adams	-6575
▁jar	-6576
▁enjoy	-6577
folk	-6578
▁commem	-6579
▁sector	-6580
▁forming	-6581
▁mong	-6582
▁habitats	-6583
▁sah	-6584
▁effective	-6585
iversary	-6586
▁vocalist	-6587
▁onto	-6588
▁zh	-6589
▁attached	-6590
chell	-6591
▁tong	-6592
▁morgan	-6593
▁advance	-6594
▁instrumental	-6595
▁discovery	-6596
▁dropped	-6597
▁sanct	-6598
▁chemistry	-6599
but	-6600
▁papers	-6601
bus	-6602
▁ye	-6603
▁nearest	-6604
castle	-6605
nowiki	-6606
▁authors	-6607
▁parks	-6608
▁rise	-6609
▁poem	-6610
gov	-6611
▁sweet	-6612
▁carbon	-6613
▁iranian	-6614
ographer	-6615
▁adelaide	-6616
▁liv	-6617
atchewan	-6618
▁vert	-6619
▁solar	-6620
▁regarded	-6621
lington	-6622
▁00,000.	-6623
▁tren	-6624
enos	-6625
▁doll	-6626
ih	-6627
▁cable	-6628
▁internal	-6629
fir	-6630
▁skin	-6631
▁toured	-6632
▁kin	-6633
▁successor	-6634
▁settlements	-6635
▁credits	-6636
▁instruments	-6637
▁defin	-6638
oen	-6639
▁calc	-6640
▁else	-6641
▁moroc	-6642
oda	-6643
▁ud	-6644
▁acted	-6645
ml	-6646
▁;	-6647
▁landscape	-6648
▁nhl	-6649
▁ign	-6650
▁competitive	-6651
▁faith	-6652
▁fitz	-6653
▁beauty	-6654
▁releases	-6655
▁thompson	-6656
▁anniversary	-6657
▁goth	-6658
▁tab	-6659
▁murray	-6660
▁frances	-6661
haps	-6662
listed	-6663
▁nas	-6664
▁pine	-6665
▁donald	-6666
cs	-6667
▁retiring	-6668
▁wealth	-6669
bes	-6670
▁saskatchewan	-6671
▁ivan	-6672
▁lou	-6673
▁henri	-6674
▁merc	-6675
▁desert	-6676
▁afterwards	-6677
▁drag	-6678
▁equival	-6679
▁landing	-6680
▁molec	-6681
pers	-6682
▁scale	-6683
▁norman	-6684
poses	-6685
▁extrem	-6686
▁sculpture	-6687
icks	-6688
▁canc	-6689
▁(0000,	-6690
▁friendly	-6691
▁mineral	-6692
iled	-6693
tor	-6694
▁grounds	-6695
ads	-6696
▁script	-6697
▁rico	-6698
ocol	-6699
▁equal	-6700
▁prest	-6701
▁hend	-6702
▁luis	-6703
▁dre	-6704
▁shopping	-6705
▁saying	-6706
▁chose	-6707
asan	-6708
▁scenes	-6709
▁serge	-6710
▁islamic	-6711
antly	-6712
ović	-6713
acks	-6714
▁cryst	-6715
sup	-6716
▁bav	-6717
▁lis	-6718
▁rival	-6719
▁bruce	-6720
▁dod	-6721
▁flu	-6722
▁criminal	-6723
phy	-6724
▁bristol	-6725
▁penal	-6726
▁haz	-6727
▁moths	-6728
▁manufacturer	-6729
▁kevin	-6730
idad	-6731
▁researcher	-6732
▁cousin	-6733
▁someone	-6734
▁incident	-6735
▁sisters	-6736
▁headquarter	-6737
look	-6738
estershire	-6739
tz	-6740
aran	-6741
oz	-6742
ashi	-6743
▁gur	-6744
uka	-6745
▁eyes	-6746
▁0%	-6747
▁signal	-6748
▁nurs	-6749
▁autonomous	-6750
▁pioneer	-6751
▁cul	-6752
▁amsterdam	-6753
▁cool	-6754
arn	-6755
▁qualify	-6756
▁signing	-6757
wig	-6758
▁sierra	-6759
▁expert	-6760
▁baptist	-6761
▁worksh	-6762
▁jesus	-6763
▁diamond	-6764
▁unc	-6765
▁universal	-6766
gate	-6767
▁nak	-6768
hyl	-6769
▁sust	-6770
ód	-6771
▁mold	-6772
green	-6773
▁ig	-6774
iah	-6775
rix	-6776
bb	-6777
illery	-6778
holder	-6779
▁manit	-6780
▁0000–0000.	-6781
achi	-6782
uscous	-6783
▁mills	-6784
swick	-6785
▁conclud	-6786
▁rick	-6787
ulu	-6788
▁pon	-6789
▁lions	-6790
▁window	-6791
erala	-6792
langu	-6793
▁manor	-6794
claimed	-6795
▁combat	-6796
▁industries	-6797
songwriter	-6798
▁favour	-6799
cal	-6800
▁otherwise	-6801
yees	-6802
▁myst	-6803
ded	-6804
▁extens	-6805
▁substitute	-6806
▁ft	-6807
▁rooms	-6808
▁cave	-6809
▁heard	-6810
▁colleg	-6811
▁dallas	-6812
▁wright	-6813
▁serie	-6814
▁tasman	-6815
▁paid	-6816
▁sty	-6817
▁conce	-6818
▁eug	-6819
▁shooting	-6820
▁claims	-6821
mund	-6822
▁instruct	-6823
▁determined	-6824
2).	-6825
▁buffalo	-6826
▁says	-6827
isb	-6828
▁employees	-6829
▁editions	-6830
▁tigers	-6831
▁quant	-6832
▁marshall	-6833
▁battalion	-6834
▁inher	-6835
▁croatian	-6836
terior	-6837
▁earliest	-6838
▁recept	-6839
anga	-6840
▁intelligence	-6841
▁glen	-6842
▁"00	-6843
ext	-6844
▁herb	-6845
▁fictional	-6846
▁headed	-6847
▁triple	-6848
▁orthodox	-6849
▁depos	-6850
▁kilometres	-6851
jord	-6852
▁pip	-6853
▁newspapers	-6854
▁serial	-6855
▁internationally	-6856
▁attribut	-6857
wright	-6858
▁concerts	-6859
▁seeds	-6860
▁prefecture	-6861
omen	-6862
▁lok	-6863
▁designs	-6864
▁nba	-6865
▁andr	-6866
▁sponsored	-6867
▁cum	-6868
▁evans	-6869
▁managing	-6870
0-	-6871
▁stockholm	-6872
▁bosnia	-6873
▁ancest	-6874
▁camer	-6875
▁malay	-6876
▁insc	-6877
language	-6878
▁youngest	-6879
gart	-6880
▁(0000-0000),	-6881
▁gain	-6882
▁urugu	-6883
▁replacing	-6884
▁user	-6885
▁0000"	-6886
▁owners	-6887
▁drawn	-6888
▁appointment	-6889
▁um	-6890
▁displ	-6891
▁michel	-6892
lu	-6893
▁gent	-6894
▁sell	-6895
▁mist	-6896
▁theore	-6897
▁bin	-6898
▁combination	-6899
▁eldest	-6900
ranean	-6901
▁warm	-6902
▁merger	-6903
nt	-6904
lem	-6905
▁tank	-6906
▁invas	-6907
▁visitors	-6908
▁kelly	-6909
▁rush	-6910
▁meets	-6911
▁ferry	-6912
▁commerce	-6913
ovich	-6914
▁amaz	-6915
▁decades	-6916
▁cyclist	-6917
▁tunnel	-6918
▁bengal	-6919
▁parallel	-6920
▁kerala	-6921
eni	-6922
atures	-6923
▁door	-6924
issance	-6925
▁emerg	-6926
hop	-6927
▁quart	-6928
▁somewhat	-6929
▁turns	-6930
▁meg	-6931
aha	-6932
▁prefer	-6933
▁proce	-6934
rot	-6935
▁convers	-6936
▁rena	-6937
▁palest	-6938
rin	-6939
▁stanley	-6940
▁rocky	-6941
▁upd	-6942
dan	-6943
▁rebuilt	-6944
▁coalition	-6945
▁rhyth	-6946
▁opposed	-6947
come	-6948
▁neighbour	-6949
▁carp	-6950
▁brunswick	-6951
▁manuscript	-6952
▁nebr	-6953
fi	-6954
flow	-6955
▁0000–00.	-6956
▁pitcher	-6957
▁furn	-6958
▁stages	-6959
aware	-6960
▁experimental	-6961
▁nac	-6962
cos	-6963
white	-6964
▁punk	-6965
▁perhaps	-6966
▁frag	-6967
▁warren	-6968
encer	-6969
▁torn	-6970
▁caf	-6971
▁pianist	-6972
hon	-6973
aja	-6974
type	-6975
▁lem	-6976
▁interests	-6977
▁masc	-6978
▁farmer	-6979
▁compositions	-6980
▁funding	-6981
▁0000-00.	-6982
▁mars	-6983
amps	-6984
▁chanc	-6985
▁matthew	-6986
▁commemor	-6987
uls	-6988
▁vit	-6989
▁religion	-6990
feld	-6991
▁0–00	-6992
eton	-6993
▁occasionally	-6994
coming	-6995
""	-6996
▁pruss	-6997
uous	-6998
▁analy	-6999
▁robinson	-7000
▁fantasy	-7001
ibbean	-7002
▁nun	-7003
gio	-7004
▁wayne	-7005
▁dies	-7006
original	-7007
▁bou	-7008
▁download	-7009
▁sporting	-7010
0)	-7011
alu	-7012
▁pressure	-7013
kl	-7014
▁bacter	-7015
▁sut	-7016
▁chor	-7017
▁subjects	-7018
▁gary	-7019
▁magazines	-7020
▁flav	-7021
▁ryan	-7022
▁sig	-7023
▁dwell	-7024
iece	-7025
ipping	-7026
ture	-7027
▁laboratory	-7028
▁goods	-7029
▁grown	-7030
▁franç	-7031
▁baker	-7032
▁cinc	-7033
▁obt	-7034
eline	-7035
▁broadway	-7036
commun	-7037
aco	-7038
▁shut	-7039
▁behav	-7040
dish	-7041
▁sult	-7042
▁animated	-7043
▁ones	-7044
cht	-7045
▁views	-7046
▁told	-7047
▁altitude	-7048
▁mines	-7049
style	-7050
▁photography	-7051
▁symphony	-7052
ahan	-7053
▁powerful	-7054
▁businesses	-7055
▁oslo	-7056
▁aid	-7057
▁scotia	-7058
aters	-7059
▁contact	-7060
▁compiled	-7061
▁colony	-7062
▁admiral	-7063
▁arabic	-7064
▁childhood	-7065
▁scout	-7066
▁rocks	-7067
▁pull	-7068
north	-7069
▁concrete	-7070
▁question	-7071
▁coff	-7072
▁genera	-7073
▁gymnast	-7074
▁nan	-7075
▁dated	-7076
▁rangers	-7077
▁giant	-7078
ecess	-7079
▁something	-7080
leans	-7081
idal	-7082
▁nadu	-7083
▁clean	-7084
alph	-7085
imately	-7086
▁lun	-7087
etime	-7088
▁baby	-7089
▁housed	-7090
▁narr	-7091
gam	-7092
▁demolished	-7093
ön	-7094
▁jess	-7095
▁encoded	-7096
team	-7097
▁surviving	-7098
▁hear	-7099
uckland	-7100
mm	-7101
ading	-7102
▁liqu	-7103
▁().	-7104
▁meant	-7105
▁continental	-7106
▁alaska	-7107
▁tanz	-7108
▁000)	-7109
▁nebraska	-7110
innati	-7111
▁strateg	-7112
▁tub	-7113
▁volumes	-7114
repren	-7115
away	-7116
▁gaz	-7117
▁accommod	-7118
oles	-7119
gie	-7120
inus	-7121
high	-7122
▁abolished	-7123
▁corporate	-7124
aca	-7125
är	-7126
▁cris	-7127
▁funds	-7128
▁lav	-7129
▁gets	-7130
00.	-7131
uy	-7132
▁methods	-7133
▁hamburg	-7134
▁pent	-7135
▁shang	-7136
▁vlad	-7137
▁chel	-7138
▁wound	-7139
▁amongst	-7140
▁stem	-7141
▁certified	-7142
▁longest	-7143
▁manitoba	-7144
▁thin	-7145
▁locally	-7146
▁festivals	-7147
▁(0,000	-7148
ulate	-7149
zz	-7150
▁determine	-7151
xi	-7152
▁genre	-7153
▁decade	-7154
far	-7155
▁dir	-7156
august	-7157
▁injured	-7158
▁jimmy	-7159
world	-7160
▁doctorate	-7161
iya	-7162
▁swimmer	-7163
▁ceased	-7164
▁needed	-7165
▁revol	-7166
iji	-7167
▁tied	-7168
nor	-7169
▁kath	-7170
abet	-7171
▁allowing	-7172
▁cloud	-7173
▁unable	-7174
▁división	-7175
▁caribbean	-7176
▁sarah	-7177
▁disney	-7178
▁ruled	-7179
▁budget	-7180
▁revealed	-7181
▁0-00	-7182
▁egyptian	-7183
▁honours	-7184
ooth	-7185
winning	-7186
▁rising	-7187
▁auckland	-7188
▁tib	-7189
▁coun	-7190
▁orn	-7191
brevi	-7192
▁chi	-7193
▁replace	-7194
▁needs	-7195
▁electrical	-7196
▁cincinnati	-7197
▁cord	-7198
▁orleans	-7199
▁temperature	-7200
▁cock	-7201
▁hull	-7202
▁finds	-7203
▁sib	-7204
pi	-7205
▁arct	-7206
▁rav	-7207
▁lub	-7208
▁cycle	-7209
▁incorpor	-7210
▁introduction	-7211
▁schedule	-7212
oly	-7213
▁0000-0000,	-7214
▁exact	-7215
▁ottawa	-7216
▁shield	-7217
▁visiting	-7218
▁importance	-7219
▁gosp	-7220
▁treaty	-7221
▁benj	-7222
ør	-7223
▁shall	-7224
▁evening	-7225
bound	-7226
▁datab	-7227
icide	-7228
▁frog	-7229
▁leads	-7230
january	-7231
▁storm	-7232
▁personnel	-7233
▁charity	-7234
▁entrepren	-7235
▁0–0.	-7236
▁advisory	-7237
▁billy	-7238
▁choir	-7239
▁songwriter	-7240
▁lag	-7241
▁semifinals	-7242
▁mediter	-7243
alt	-7244
▁osc	-7245
▁coaches	-7246
▁afghanistan	-7247
▁chester	-7248
org	-7249
▁dy	-7250
▁capit	-7251
two	-7252
,000.	-7253
▁montana	-7254
▁focuses	-7255
▁tells	-7256
▁ways	-7257
aho	-7258
▁tir	-7259
▁recipient	-7260
▁warri	-7261
▁"(	-7262
▁00)	-7263
cho	-7264
▁hob	-7265
inian	-7266
stown	-7267
cor	-7268
▁soil	-7269
▁tob	-7270
▁device	-7271
▁propos	-7272
▁pleas	-7273
▁driving	-7274
rav	-7275
▁soldier	-7276
▁triang	-7277
▁colum	-7278
▁hawaii	-7279
▁occasions	-7280
▁forty	-7281
▁controlled	-7282
▁brew	-7283
▁truck	-7284
verty	-7285
sz	-7286
hatt	-7287
▁encom	-7288
▁fuscous	-7289
▁ian	-7290
▁math	-7291
▁tourism	-7292
ayer	-7293
▁conflict	-7294
▁reporter	-7295
iere	-7296
▁administer	-7297
▁norfolk	-7298
soft	-7299
▁marks	-7300
▁styl	-7301
▁categories	-7302
▁specialized	-7303
000.	-7304
aken	-7305
▁unusual	-7306
▁celebrated	-7307
▁spell	-7308
▁rating	-7309
▁belarus	-7310
nell	-7311
order	-7312
▁nomination	-7313
ashire	-7314
eg	-7315
ogs	-7316
iden	-7317
▁nest	-7318
ontin	-7319
anni	-7320
▁occupation	-7321
▁expos	-7322
▁formally	-7323
▁storage	-7324
▁ultimately	-7325
brew	-7326
▁horses	-7327
▁grandson	-7328
▁tat	-7329
▁cuba	-7330
▁transit	-7331
maker	-7332
▁entering	-7333
▁headquartered	-7334
going	-7335
▁mini	-7336
"-	-7337
▁somers	-7338
▁equivalent	-7339
▁bent	-7340
▁ahead	-7341
▁mail	-7342
▁tack	-7343
▁retained	-7344
▁tenth	-7345
▁emigr	-7346
▁curt	-7347
▁formal	-7348
bat	-7349
geon	-7350
▁purposes	-7351
▁lecturer	-7352
▁networks	-7353
▁inducted	-7354
▁faced	-7355
▁scand	-7356
▁gamb	-7357
▁doing	-7358
▁calls	-7359
▁traditionally	-7360
ivo	-7361
▁hond	-7362
▁suggested	-7363
ders	-7364
▁reaches	-7365
0.0	-7366
▁sequence	-7367
▁magic	-7368
hra	-7369
▁hut	-7370
ben	-7371
▁collegiate	-7372
▁sessions	-7373
oro	-7374
▁lancashire	-7375
bast	-7376
▁indicated	-7377
banded	-7378
usal	-7379
erald	-7380
▁mediterranean	-7381
▁johnny	-7382
riel	-7383
▁ranch	-7384
erse	-7385
▁cycling	-7386
▁och	-7387
▁episcopal	-7388
anny	-7389
▁mud	-7390
▁revolutionary	-7391
▁hunter	-7392
▁violin	-7393
▁villa	-7394
▁benn	-7395
▁easily	-7396
hand	-7397
unda	-7398
▁tried	-7399
iner	-7400
▁provinces	-7401
▁renew	-7402
donald	-7403
ele	-7404
umbai	-7405
▁estonia	-7406
▁paulo	-7407
▁intermed	-7408
▁slovakia	-7409
ema	-7410
▁gregory	-7411
▁encompass	-7412
▁perth	-7413
▁bodies	-7414
▁xi	-7415
▁vinyl	-7416
▁ago	-7417
▁panel	-7418
▁ages	-7419
▁steep	-7420
uki	-7421
icts	-7422
▁uganda	-7423
▁vessel	-7424
▁colleges	-7425
▁sexual	-7426
▁kap	-7427
operation	-7428
▁ms	-7429
▁trio	-7430
eo	-7431
▁forum	-7432
▁skills	-7433
▁tag	-7434
▁monthly	-7435
eston	-7436
▁dynam	-7437
yd	-7438
olid	-7439
▁universe	-7440
▁wave	-7441
black	-7442
ruct	-7443
▁cosm	-7444
power	-7445
nal	-7446
species	-7447
▁cliff	-7448
▁connecting	-7449
▁horror	-7450
▁barry	-7451
▁none	-7452
related	-7453
rez	-7454
▁documents	-7455
▁camera	-7456
person	-7457
aust	-7458
▁contrast	-7459
▁gael	-7460
▁vermont	-7461
▁panch	-7462
you	-7463
▁mitchell	-7464
▁items	-7465
ault	-7466
▁ballet	-7467
▁farming	-7468
▁poverty	-7469
▁luther	-7470
▁kab	-7471
▁lap	-7472
ahl	-7473
▁showed	-7474
▁conqu	-7475
ellor	-7476
▁romantic	-7477
▁clan	-7478
imp	-7479
endent	-7480
iast	-7481
▁carter	-7482
▁predomin	-7483
▁mig	-7484
▁sort	-7485
term	-7486
▁charlotte	-7487
ogne	-7488
▁param	-7489
▁ottoman	-7490
▁fuel	-7491
▁grammar	-7492
▁gren	-7493
este	-7494
ifer	-7495
tingham	-7496
athe	-7497
▁images	-7498
▁nicholas	-7499
brid	-7500
▁portrait	-7501
lett	-7502
urst	-7503
iling	-7504
▁wool	-7505
▁batting	-7506
omon	-7507
▁playoffs	-7508
▁sense	-7509
▁measures	-7510
urnal	-7511
▁preserved	-7512
▁damage	-7513
▁dock	-7514
▁tul	-7515
":	-7516
▁benjamin	-7517
▁essex	-7518
▁jurisd	-7519
▁manufactured	-7520
▁legs	-7521
▁gust	-7522
▁phen	-7523
emen	-7524
▁vii	-7525
▁supports	-7526
▁rect	-7527
▁ki	-7528
▁superior	-7529
▁Á	-7530
▁linked	-7531
▁palm	-7532
▁petersburg	-7533
▁advertising	-7534
▁raz	-7535
▁fk	-7536
▁batsman	-7537
▁resolution	-7538
▁caval	-7539
▁tourist	-7540
▁lion	-7541
▁cream	-7542
andy	-7543
▁brain	-7544
uj	-7545
▁0,000,	-7546
▁engineers	-7547
ules	-7548
▁buc	-7549
thro	-7550
▁remember	-7551
otes	-7552
ser	-7553
igible	-7554
▁erected	-7555
▁ninet	-7556
▁cdp	-7557
▁eat	-7558
▁sultan	-7559
▁boxing	-7560
▁kay	-7561
oga	-7562
▁florence	-7563
ffield	-7564
▁yale	-7565
▁aw	-7566
▁filled	-7567
anne	-7568
first	-7569
▁kazakh	-7570
ün	-7571
▁ov	-7572
▁objects	-7573
▁Ś	-7574
▁refuge	-7575
▁sheriff	-7576
▁assumed	-7577
▁harbour	-7578
erally	-7579
▁abroad	-7580
▁agreed	-7581
▁aj	-7582
▁save	-7583
▁enemy	-7584
▁neighbourhood	-7585
▁string	-7586
▁motorcy	-7587
▁sap	-7588
▁leeds	-7589
▁showing	-7590
▁lighth	-7591
▁moh	-7592
▁yard	-7593
▁discontin	-7594
%)	-7595
▁herbert	-7596
▁shares	-7597
ennis	-7598
▁hugh	-7599
panic	-7600
▁herself	-7601
▁accompanied	-7602
abi	-7603
mate	-7604
▁rocket	-7605
▁belonged	-7606
▁fixed	-7607
▁mumbai	-7608
▁scientist	-7609
▁0000'	-7610
▁purple	-7611
ario	-7612
lying	-7613
▁billboard	-7614
▁parent	-7615
▁berg	-7616
zegov	-7617
▁(0000-0000).	-7618
▁additionally	-7619
▁officials	-7620
▁vid	-7621
▁disbanded	-7622
apping	-7623
wi	-7624
▁lock	-7625
iations	-7626
▁archaeological	-7627
▁didn	-7628
▁assess	-7629
▁premiers	-7630
▁crosses	-7631
▁grove	-7632
▁attempts	-7633
▁replacement	-7634
▁artillery	-7635
december	-7636
october	-7637
▁femin	-7638
▁reserves	-7639
▁eagles	-7640
igious	-7641
▁warner	-7642
▁chance	-7643
▁influential	-7644
▁biology	-7645
▁territories	-7646
▁organised	-7647
▁drew	-7648
▁0000–0000,	-7649
berry	-7650
works	-7651
▁centers	-7652
pris	-7653
▁lan	-7654
▁integrated	-7655
▁isa	-7656
▁kerman	-7657
isbane	-7658
▁task	-7659
▁roots	-7660
▁anat	-7661
otype	-7662
▁getting	-7663
april	-7664
cur	-7665
▁rus	-7666
▁restoration	-7667
asia	-7668
▁indie	-7669
september	-7670
abited	-7671
▁fasc	-7672
▁nit	-7673
▁sussex	-7674
fia	-7675
▁tunis	-7676
▁ille	-7677
▁resid	-7678
▁joy	-7679
zegovina	-7680
▁consequ	-7681
▁nottingham	-7682
▁barbara	-7683
▁visible	-7684
▁improve	-7685
ellation	-7686
▁predecess	-7687
clusion	-7688
june	-7689
▁kirk	-7690
▁townships	-7691
▁benef	-7692
▁griff	-7693
▁00°	-7694
▁actual	-7695
▁patrol	-7696
▁donated	-7697
▁ted	-7698
▁cramb	-7699
▁popularity	-7700
▁ghost	-7701
▁grandfather	-7702
▁newcastle	-7703
▁offering	-7704
▁giov	-7705
▁pageant	-7706
ilia	-7707
▁winds	-7708
igenous	-7709
iev	-7710
▁bert	-7711
▁alco	-7712
▁aires	-7713
lic	-7714
▁pole	-7715
▁ranks	-7716
emp	-7717
▁limit	-7718
▁interested	-7719
▁krist	-7720
▁georgian	-7721
keley	-7722
grand	-7723
▁glouc	-7724
iser	-7725
▁indicates	-7726
▁armenian	-7727
▁vil	-7728
▁cork	-7729
▁journalism	-7730
eas	-7731
▁ensemble	-7732
▁sacr	-7733
ternal	-7734
▁designation	-7735
▁grap	-7736
vere	-7737
pret	-7738
▁dc	-7739
fts	-7740
enhagen	-7741
▁delaware	-7742
lif	-7743
▁gross	-7744
▁raw	-7745
▁vision	-7746
big	-7747
▁matter	-7748
stroke	-7749
▁pont	-7750
iago	-7751
▁gothic	-7752
aukee	-7753
▁acres	-7754
iko	-7755
▁smooth	-7756
regular	-7757
▁residing	-7758
▁relocated	-7759
▁brisbane	-7760
▁representation	-7761
alf	-7762
▁carn	-7763
ovak	-7764
bank	-7765
▁cartoon	-7766
break	-7767
▁fifteen	-7768
▁lingu	-7769
▁scheme	-7770
ivan	-7771
▁kra	-7772
▁rim	-7773
▁winn	-7774
▁giants	-7775
bird	-7776
▁reconstr	-7777
▁andy	-7778
idel	-7779
▁transition	-7780
▁styles	-7781
▁farmers	-7782
▁moz	-7783
▁bun	-7784
▁exists	-7785
helm	-7786
▁fighter	-7787
avian	-7788
▁hem	-7789
▁milit	-7790
▁printed	-7791
▁exhibited	-7792
▁panama	-7793
written	-7794
▁ranges	-7795
later	-7796
▁aar	-7797
▁Łód	-7798
july	-7799
▁grav	-7800
bek	-7801
▁gib	-7802
umberland	-7803
eme	-7804
▁isolated	-7805
▁buch	-7806
▁0)	-7807
▁pm	-7808
avan	-7809
rant	-7810
▁topics	-7811
▁duties	-7812
▁accred	-7813
▁ernest	-7814
▁ard	-7815
▁util	-7816
▁madag	-7817
▁pi	-7818
▁mrs	-7819
▁somerset	-7820
▁gw	-7821
▁easy	-7822
▁divor	-7823
▁..	-7824
▁cardinal	-7825
arks	-7826
▁herzegovina	-7827
▁wellington	-7828
background	-7829
icon	-7830
▁vincent	-7831
▁activist	-7832
▁mend	-7833
gon	-7834
▁crambidae	-7835
vol	-7836
▁hav	-7837
▁foster	-7838
▁rig	-7839
▁yam	-7840
▁venice	-7841
▁yugoslavia	-7842
▁neighbo	-7843
omo	-7844
▁adventure	-7845
▁hein	-7846
▁cloth	-7847
▁withdra	-7848
orp	-7849
love	-7850
▁tries	-7851
▁birthday	-7852
abwe	-7853
▁Łódź	-7854
▁crop	-7855
▁statue	-7856
▁woods	-7857
▁spelled	-7858
uba	-7859
▁runners	-7860
▁mosque	-7861
▁terror	-7862
february	-7863
▁tech	-7864
▁euro	-7865
▁ethiop	-7866
▁links	-7867
▁consec	-7868
▁observed	-7869
hall	-7870
▁trading	-7871
▁airline	-7872
▁markets	-7873
▁wake	-7874
▁horiz	-7875
▁technique	-7876
▁photographer	-7877
arts	-7878
▁earning	-7879
▁cash	-7880
▁extends	-7881
▁sheffield	-7882
▁catherine	-7883
▁fra	-7884
▁nephe	-7885
▁versus	-7886
▁subspecies	-7887
▁broadcasts	-7888
▁seems	-7889
▁bible	-7890
▁indigenous	-7891
▁hub	-7892
▁tap	-7893
▁turner	-7894
eu	-7895
▁nazi	-7896
▁motors	-7897
▁resemb	-7898
▁bj	-7899
▁besides	-7900
imbabwe	-7901
▁nut	-7902
ingen	-7903
▁historically	-7904
▁tend	-7905
waukee	-7906
▁heights	-7907
▁navig	-7908
▁hindu	-7909
▁tut	-7910
▁polic	-7911
uh	-7912
▁mant	-7913
▁situation	-7914
▁techniques	-7915
itime	-7916
align	-7917
bow	-7918
▁molecular	-7919
lane	-7920
▁risk	-7921
lock	-7922
ña	-7923
▁seminary	-7924
▁ride	-7925
▁apple	-7926
-0,	-7927
▁jason	-7928
▁kennedy	-7929
▁ownership	-7930
rs	-7931
▁buenos	-7932
▁ss	-7933
cin	-7934
ref	-7935
yeh	-7936
▁quad	-7937
▁jenn	-7938
▁surgery	-7939
idden	-7940
unes	-7941
anche	-7942
president	-7943
▁worship	-7944
▁venture	-7945
▁aur	-7946
▁nomine	-7947
▁cannot	-7948
▁toward	-7949
onymous	-7950
▁weekend	-7951
▁diet	-7952
enter	-7953
▁zimbabwe	-7954
▁purchase	-7955
lain	-7956
core	-7957
udes	-7958
▁fellowship	-7959
▁modified	-7960
él	-7961
aser	-7962
iments	-7963
▁intel	-7964
▁confused	-7965
▁nothing	-7966
▁scales	-7967
▁zag	-7968
▁theod	-7969
fol	-7970
tene	-7971
uration	-7972
▁ferr	-7973
november	-7974
hydro	-7975
née	-7976
▁whereas	-7977
▁Ö	-7978
▁rated	-7979
▁honors	-7980
▁identity	-7981
▁kun	-7982
▁aggregate	-7983
▁swan	-7984
ipur	-7985
▁duty	-7986
▁swit	-7987
▁watch	-7988
▁tanzania	-7989
english	-7990
▁causes	-7991
▁reject	-7992
▁jonathan	-7993
▁clock	-7994
▁fifty	-7995
▁embass	-7996
gom	-7997
▁thai	-7998
▁drums	-7999
▁oliver	-8000
loyd	-8001
nas	-8002
▁proved	-8003
▁tours	-8004
gun	-8005
eless	-8006
▁dual	-8007
bet	-8008
▁tet	-8009
▁sak	-8010
▁wang	-8011
eli	-8012
▁holland	-8013
▁prepared	-8014
▁0/0	-8015
▁pedro	-8016
▁transc	-8017
▁accessible	-8018
▁copenhagen	-8019
▁bail	-8020
▁khor	-8021
ridae	-8022
▁check	-8023
▁vary	-8024
ashtra	-8025
▁powers	-8026
▁failure	-8027
▁temporary	-8028
lores	-8029
ucing	-8030
roph	-8031
▁voting	-8032
borg	-8033
▁rodr	-8034
othy	-8035
▁dum	-8036
▁persian	-8037
acle	-8038
▁rally	-8039
▁emergency	-8040
▁muhammad	-8041
▁phoen	-8042
▁communes	-8043
▁spart	-8044
fil	-8045
▁tamp	-8046
▁catch	-8047
▁cruz	-8048
▁helping	-8049
oko	-8050
▁orders	-8051
▁elevated	-8052
▁producers	-8053
ém	-8054
▁file	-8055
▁involving	-8056
▁00–0	-8057
▁guang	-8058
▁earthqu	-8059
brown	-8060
▁demand	-8061
▁lasted	-8062
▁hispanic	-8063
▁berkeley	-8064
▁craig	-8065
▁emphas	-8066
▁revenue	-8067
▁guns	-8068
▁keith	-8069
▁shanghai	-8070
▁adaptation	-8071
equ	-8072
▁wer	-8073
▁bald	-8074
phone	-8075
▁antarctica	-8076
oslovak	-8077
▁wells	-8078
▁widow	-8079
▁piet	-8080
▁patients	-8081
▁devon	-8082
▁constituencies	-8083
▁participating	-8084
▁pairs	-8085
▁sandy	-8086
▁missing	-8087
▁react	-8088
ija	-8089
▁manuel	-8090
▁liz	-8091
▁durham	-8092
▁poster	-8093
rik	-8094
▁canon	-8095
▁cox	-8096
▁racial	-8097
ifications	-8098
▁boundaries	-8099
▁psychology	-8100
▁trin	-8101
▁wire	-8102
minster	-8103
imir	-8104
embourg	-8105
▁madagascar	-8106
uli	-8107
▁hunting	-8108
▁gonz	-8109
▁administered	-8110
usalem	-8111
▁galax	-8112
▁offensive	-8113
▁kas	-8114
ea	-8115
▁tra	-8116
hattan	-8117
▁extremely	-8118
rose	-8119
horn	-8120
▁traded	-8121
ripts	-8122
▁latest	-8123
▁beating	-8124
▁looking	-8125
▁colors	-8126
itus	-8127
▁camero	-8128
ometown	-8129
▁apost	-8130
▁mathemat	-8131
kal	-8132
▁uss	-8133
▁hms	-8134
▁segment	-8135
encing	-8136
▁seem	-8137
▁trying	-8138
▁powered	-8139
▁cattle	-8140
ears	-8141
▁rovers	-8142
▁achievement	-8143
▁friday	-8144
▁guild	-8145
▁milk	-8146
▁drawing	-8147
▁00"	-8148
▁delivered	-8149
▁conductor	-8150
▁stanford	-8151
▁imag	-8152
▁export	-8153
▁wes	-8154
▁tools	-8155
▁lor	-8156
▁ticket	-8157
éd	-8158
▁invasion	-8159
eri	-8160
▁abstr	-8161
bin	-8162
mag	-8163
▁tot	-8164
▁noct	-8165
▁expand	-8166
▁submarine	-8167
▁tol	-8168
▁exclusively	-8169
uing	-8170
▁boats	-8171
▁premiere	-8172
▁earn	-8173
▁gospel	-8174
▁necessary	-8175
▁devices	-8176
▁0000/0000	-8177
▁illustrated	-8178
▁czechoslovak	-8179
▁cotton	-8180
owice	-8181
▁uttar	-8182
▁alleged	-8183
tical	-8184
▁hometown	-8185
▁speech	-8186
icate	-8187
▁kor	-8188
sub	-8189
▁regarding	-8190
▁volunteer	-8191
rise	-8192
▁belt	-8193
▁hann	-8194
aqu	-8195
publ	-8196
▁rum	-8197
▁alphabet	-8198
▁jak	-8199
▁stu	-8200
▁hab	-8201
▁grace	-8202
▁breed	-8203
▁extensively	-8204
▁hence	-8205
ao	-8206
▁architects	-8207
▁lighthouse	-8208
orous	-8209
▁attacks	-8210
ás	-8211
▁relief	-8212
▁reb	-8213
▁ratio	-8214
▁sixteen	-8215
▁alpine	-8216
▁animation	-8217
▁abbrevi	-8218
istani	-8219
▁lebanon	-8220
▁improved	-8221
▁thirteen	-8222
▁strength	-8223
▁renowned	-8224
▁stevens	-8225
▁investigation	-8226
sted	-8227
body	-8228
▁escape	-8229
▁premiership	-8230
urse	-8231
▁batted	-8232
▁theology	-8233
ropri	-8234
▁elector	-8235
▁surrey	-8236
▁ske	-8237
▁freshwater	-8238
▁fossils	-8239
▁departments	-8240
▁methodist	-8241
▁sic	-8242
▁brack	-8243
▁bolivia	-8244
▁bra	-8245
▁recon	-8246
▁wag	-8247
▁filip	-8248
▁counsel	-8249
▁canyon	-8250
▁pig	-8251
▁opportunity	-8252
▁toy	-8253
▁carr	-8254
▁fisc	-8255
▁avoid	-8256
▁copper	-8257
▁bassist	-8258
▁learned	-8259
will	-8260
fan	-8261
▁paralympics	-8262
▁bordered	-8263
isch	-8264
▁themes	-8265
ridge	-8266
▁geological	-8267
dez	-8268
▁buy	-8269
▁grades	-8270
▁clerk	-8271
▁breast	-8272
▁hir	-8273
▁maps	-8274
isms	-8275
▁"".	-8276
▁rapper	-8277
ār	-8278
foot	-8279
▁holiday	-8280
▁gone	-8281
▁orb	-8282
▁refused	-8283
▁overseas	-8284
▁thorn	-8285
▁reiss	-8286
▁depending	-8287
▁grammy	-8288
▁kle	-8289
▁harbor	-8290
▁hels	-8291
▁parker	-8292
▁novelist	-8293
▁completion	-8294
sim	-8295
▁reun	-8296
▁initiative	-8297
▁refere	-8298
▁entrepreneur	-8299
▁lamb	-8300
▁pom	-8301
▁collaborated	-8302
owski	-8303
▁atm	-8304
▁accompl	-8305
boat	-8306
▁bridges	-8307
▁milwaukee	-8308
▁dress	-8309
▁luxembourg	-8310
mu	-8311
techn	-8312
▁placing	-8313
▁gö	-8314
▁perfect	-8315
▁clinical	-8316
▁funded	-8317
yt	-8318
imeters	-8319
▁channels	-8320
rica	-8321
anti	-8322
child	-8323
▁dragon	-8324
uez	-8325
▁congregation	-8326
▁saudi	-8327
▁blocks	-8328
▁photos	-8329
▁striker	-8330
▁founders	-8331
▁rut	-8332
▁pitch	-8333
▁marqu	-8334
▁exhibitions	-8335
▁constitutional	-8336
ew	-8337
direct	-8338
▁edmon	-8339
furt	-8340
haw	-8341
▁nephew	-8342
▁yout	-8343
▁construct	-8344
▁morocco	-8345
▁jerusalem	-8346
gary	-8347
caster	-8348
▁dent	-8349
▁hindi	-8350
anta	-8351
atra	-8352
▁grande	-8353
▁restaurants	-8354
▁intermediate	-8355
▁absor	-8356
▁attempted	-8357
bay	-8358
rehens	-8359
▁limestone	-8360
▁rifle	-8361
▁frequent	-8362
▁discontinued	-8363
▁aspects	-8364
lia	-8365
▁journals	-8366
▁sharp	-8367
▁lloyd	-8368
▁appeal	-8369
▁patron	-8370
▁database	-8371
▁sudan	-8372
▁spa	-8373
▁soap	-8374
▁resides	-8375
▁indians	-8376
▁butler	-8377
▁nashville	-8378
ums	-8379
▁johannes	-8380
▁resistance	-8381
▁attending	-8382
▁atp	-8383
▁evangel	-8384
ńsk	-8385
▁tram	-8386
▁owns	-8387
▁plane	-8388
▁committed	-8389
ribed	-8390
▁gaelic	-8391
▁vs	-8392
del	-8393
▁cbs	-8394
▁neu	-8395
▁therap	-8396
▁prestigious	-8397
how	-8398
▁irregular	-8399
▁anchor	-8400
▁elite	-8401
▁calling	-8402
▁cott	-8403
▁charlie	-8404
▁manhattan	-8405
ovian	-8406
▁cited	-8407
▁heath	-8408
free	-8409
▁ras	-8410
▁capable	-8411
▁technologies	-8412
third	-8413
▁defend	-8414
▁recreation	-8415
mac	-8416
roe	-8417
▁dancer	-8418
ader	-8419
ophor	-8420
▁yang	-8421
▁vale	-8422
gel	-8423
▁jefferson	-8424
dis	-8425
▁graduation	-8426
▁trump	-8427
▁walking	-8428
▁madison	-8429
▁columns	-8430
market	-8431
uche	-8432
▁hebrew	-8433
▁pure	-8434
nar	-8435
▁originated	-8436
▁gir	-8437
ansk	-8438
aste	-8439
▁0.00.	-8440
▁substant	-8441
▁hil	-8442
▁kom	-8443
▁phone	-8444
▁thereafter	-8445
▁syria	-8446
▁shaw	-8447
▁fourteen	-8448
rett	-8449
▁sculptor	-8450
exp	-8451
▁cards	-8452
▁whitish	-8453
▁kann	-8454
▁caught	-8455
sters	-8456
▁vessels	-8457
▁copa	-8458
▁characterized	-8459
▁ion	-8460
▁continuing	-8461
▁.000	-8462
▁rever	-8463
▁coverage	-8464
obile	-8465
▁kumar	-8466
▁petro	-8467
zhou	-8468
▁jurisdiction	-8469
▁relative	-8470
bad	-8471
▁employment	-8472
▁au	-8473
▁kash	-8474
▁hyper	-8475
▁remainder	-8476
abel	-8477
▁ji	-8478
▁commenced	-8479
▁ahmed	-8480
▁expression	-8481
then	-8482
haus	-8483
walk	-8484
▁josh	-8485
▁specialist	-8486
zig	-8487
▁makeup	-8488
▁undergraduate	-8489
▁ideas	-8490
▁ladies	-8491
▁damaged	-8492
while	-8493
▁mainland	-8494
▁canoe	-8495
▁helic	-8496
▁writes	-8497
sil	-8498
▁heir	-8499
▁friedrich	-8500
iors	-8501
▁camb	-8502
avia	-8503
hour	-8504
▁giovanni	-8505
▁bind	-8506
▁slopes	-8507
▁roster	-8508
▁operator	-8509
▁dup	-8510
▁bren	-8511
▁actions	-8512
mart	-8513
▁alice	-8514
founded	-8515
▁executed	-8516
▁ced	-8517
▁sitting	-8518
▁kids	-8519
▁dissolved	-8520
▁edmonton	-8521
▁ober	-8522
▁pub	-8523
▁collins	-8524
▁sought	-8525
estan	-8526
▁assistance	-8527
▁mathematical	-8528
ocer	-8529
▁depot	-8530
▁carrying	-8531
stock	-8532
▁phr	-8533
▁excav	-8534
▁harrison	-8535
▁syl	-8536
▁youtube	-8537
entially	-8538
▁wides	-8539
def	-8540
▁extreme	-8541
▁circum	-8542
▁why	-8543
olds	-8544
▁jury	-8545
▁reorgan	-8546
▁tool	-8547
▁denver	-8548
▁confeder	-8549
airo	-8550
rastruct	-8551
▁jag	-8552
dem	-8553
▁diagn	-8554
▁gy	-8555
▁melod	-8556
▁hes	-8557
▁lowest	-8558
▁participation	-8559
▁mul	-8560
▁rica	-8561
▁hospit	-8562
▁tenure	-8563
pin	-8564
▁pron	-8565
isi	-8566
▁describe	-8567
▁idaho	-8568
care	-8569
▁calcul	-8570
mount	-8571
ception	-8572
▁cec	-8573
▁bench	-8574
group	-8575
▁phoenix	-8576
▁comprehens	-8577
▁screenwriter	-8578
▁americans	-8579
▁tell	-8580
▁raymond	-8581
▁blind	-8582
chang	-8583
▁dismiss	-8584
▁suicide	-8585
▁operational	-8586
▁impl	-8587
▁impris	-8588
▁ia	-8589
▁experi	-8590
uses	-8591
▁locomotives	-8592
uter	-8593
▁microsoft	-8594
▁prelim	-8595
▁rises	-8596
pen	-8597
▁eggs	-8598
▁acous	-8599
▁couples	-8600
▁interstate	-8601
▁dominican	-8602
▁doct	-8603
▁teach	-8604
founder	-8605
▁carries	-8606
▁pc	-8607
▁luke	-8608
▁seoul	-8609
▁resignation	-8610
▁encl	-8611
▁negot	-8612
▁infrastruct	-8613
▁loop	-8614
▁delta	-8615
▁observatory	-8616
dered	-8617
▁picked	-8618
▁quar	-8619
▁scr	-8620
▁rah	-8621
uca	-8622
▁maharashtra	-8623
▁killing	-8624
▁cornwall	-8625
▁lowland	-8626
▁devoted	-8627
ieth	-8628
▁stating	-8629
▁gear	-8630
national	-8631
inum	-8632
▁ralph	-8633
▁harold	-8634
▁processing	-8635
good	-8636
▁nickname	-8637
▁opponents	-8638
▁janeiro	-8639
enne	-8640
inki	-8641
▁commanded	-8642
▁evolution	-8643
gard	-8644
▁thorough	-8645
▁components	-8646
▁praised	-8647
▁helen	-8648
▁philippine	-8649
▁bever	-8650
▁presenter	-8651
nica	-8652
▁bug	-8653
▁partly	-8654
chel	-8655
▁posted	-8656
brook	-8657
▁jamaica	-8658
▁pages	-8659
tenance	-8660
three	-8661
▁bicy	-8662
▁dang	-8663
▁tests	-8664
ricted	-8665
▁charted	-8666
▁embassy	-8667
eria	-8668
▁presby	-8669
▁listing	-8670
▁enterprise	-8671
▁patent	-8672
▁"",	-8673
enberg	-8674
▁brom	-8675
lov	-8676
▁(0)	-8677
▁spending	-8678
▁diplomatic	-8679
▁...	-8680
govern	-8681
▁dialect	-8682
▁shops	-8683
▁proced	-8684
▁perry	-8685
▁wilder	-8686
▁mik	-8687
▁touchdown	-8688
▁frequency	-8689
zów	-8690
umi	-8691
▁cf	-8692
rio	-8693
▁judges	-8694
▁alternate	-8695
▁algeria	-8696
mates	-8697
▁eagle	-8698
▁ana	-8699
▁duck	-8700
▁responsibility	-8701
chair	-8702
▁singers	-8703
▁trustees	-8704
▁rescue	-8705
▁santiago	-8706
▁papua	-8707
▁len	-8708
illed	-8709
member	-8710
▁blog	-8711
levard	-8712
vfl	-8713
rovision	-8714
▁nbc	-8715
pread	-8716
▁calgary	-8717
iph	-8718
▁sard	-8719
▁contribution	-8720
▁bened	-8721
nu	-8722
▁rook	-8723
ichi	-8724
atar	-8725
▁repeated	-8726
▁bend	-8727
▁whor	-8728
▁nacional	-8729
▁rogers	-8730
▁presents	-8731
▁ranging	-8732
▁hudson	-8733
▁ost	-8734
▁values	-8735
▁sleep	-8736
minute	-8737
▁bom	-8738
▁deport	-8739
reb	-8740
▁aux	-8741
utation	-8742
▁saxoph	-8743
▁testing	-8744
antine	-8745
▁0.000	-8746
▁description	-8747
▁maintenance	-8748
▁stakes	-8749
atem	-8750
▁wre	-8751
▁exerc	-8752
▁normally	-8753
city	-8754
▁airlines	-8755
▁switch	-8756
▁anglican	-8757
▁wilhelm	-8758
▁locomotive	-8759
▁predecessor	-8760
eb	-8761
▁timber	-8762
▁widespread	-8763
▁publishes	-8764
▁bras	-8765
cycl	-8766
▁0'	-8767
▁salvador	-8768
▁ble	-8769
▁crash	-8770
mil	-8771
▁advant	-8772
cop	-8773
ulum	-8774
ár	-8775
▁cyprus	-8776
▁montene	-8777
▁wildc	-8778
official	-8779
district	-8780
▁governing	-8781
▁krish	-8782
esian	-8783
▁enh	-8784
▁ibn	-8785
▁illness	-8786
▁perennial	-8787
▁certific	-8788
▁trials	-8789
▁editorial	-8790
▁malayalam	-8791
▁administrator	-8792
▁beer	-8793
▁towers	-8794
▁thousand	-8795
▁jung	-8796
▁mtv	-8797
▁affiliate	-8798
eda	-8799
▁cort	-8800
▁supposed	-8801
ignated	-8802
▁monarch	-8803
▁weapons	-8804
▁felt	-8805
▁mechanical	-8806
▁nu	-8807
second	-8808
boro	-8809
▁stopped	-8810
▁safe	-8811
▁ther	-8812
sat	-8813
▁fib	-8814
▁albanian	-8815
lee	-8816
▁programmes	-8817
▁tribute	-8818
vik	-8819
▁chick	-8820
▁agencies	-8821
▁moment	-8822
asha	-8823
ussels	-8824
▁albania	-8825
py	-8826
month	-8827
vet	-8828
pc	-8829
amental	-8830
▁sony	-8831
▁ware	-8832
▁lodge	-8833
issa	-8834
▁wounded	-8835
kie	-8836
▁palmer	-8837
▁isle	-8838
six	-8839
▁terry	-8840
▁neighboring	-8841
itis	-8842
ounced	-8843
▁craw	-8844
▁lublin	-8845
▁dancing	-8846
isf	-8847
▁really	-8848
▁organis	-8849
▁travels	-8850
▁masovian	-8851
▁spiritual	-8852
▁eurovision	-8853
azi	-8854
▁turning	-8855
▁temp	-8856
▁playwright	-8857
▁pret	-8858
▁assign	-8859
▁enfor	-8860
atch	-8861
yev	-8862
iii	-8863
▁polo	-8864
▁pall	-8865
upe	-8866
▁solution	-8867
▁reed	-8868
▁photo	-8869
anca	-8870
olph	-8871
▁coffee	-8872
▁apex	-8873
▁equipped	-8874
▁strongly	-8875
▁pand	-8876
▁eligible	-8877
▁newton	-8878
▁boulevard	-8879
thouse	-8880
▁wyoming	-8881
▁lah	-8882
▁suspended	-8883
▁liquid	-8884
▁config	-8885
▁rhode	-8886
▁inherited	-8887
▁speak	-8888
▁coat	-8889
obi	-8890
▁hr	-8891
▁monday	-8892
▁boxer	-8893
▁cargo	-8894
▁transmit	-8895
▁wonder	-8896
▁concluded	-8897
isha	-8898
▁missed	-8899
pit	-8900
▁scholars	-8901
▁completing	-8902
▁accur	-8903
▁decorated	-8904
urbs	-8905
▁dennis	-8906
▁abu	-8907
▁predominantly	-8908
len	-8909
▁huge	-8910
▁amal	-8911
▁citizen	-8912
pedo	-8913
▁partial	-8914
acc	-8915
mos	-8916
▁sean	-8917
reous	-8918
his	-8919
sburg	-8920
titled	-8921
▁gather	-8922
▁sebast	-8923
▁banking	-8924
apest	-8925
▁biological	-8926
▁paragu	-8927
▁streams	-8928
▁olive	-8929
▁component	-8930
ulus	-8931
▁passage	-8932
oque	-8933
▁beetles	-8934
▁infrastructure	-8935
▁dil	-8936
▁veteran	-8937
hin	-8938
etta	-8939
ingly	-8940
station	-8941
went	-8942
▁stuart	-8943
▁cancelled	-8944
▁believe	-8945
▁warwick	-8946
▁pakistani	-8947
▁uruguay	-8948
kir	-8949
▁customers	-8950
▁comprehensive	-8951
▁newfound	-8952
▁cu	-8953
uta	-8954
▁boss	-8955
▁recognised	-8956
▁lifetime	-8957
▁throw	-8958
ór	-8959
▁bavaria	-8960
hot	-8961
nai	-8962
▁charged	-8963
▁attributed	-8964
▁oval	-8965
▁bundes	-8966
▁lithuania	-8967
▁mode	-8968
▁output	-8969
journal	-8970
▁leo	-8971
▁mystery	-8972
strong	-8973
▁airfield	-8974
▁signif	-8975
building	-8976
▁conj	-8977
▁adventures	-8978
▁opin	-8979
▁jacques	-8980
▁gable	-8981
▁sounds	-8982
▁magnitude	-8983
▁capture	-8984
▁fastest	-8985
▁oscar	-8986
▁origins	-8987
▁newport	-8988
▁ri	-8989
ipeg	-8990
▁panchay	-8991
▁quartet	-8992
▁java	-8993
▁steven	-8994
▁minimum	-8995
▁interviews	-8996
▁uci	-8997
▁stones	-8998
▁external	-8999
▁competitors	-9000
▁explos	-9001
▁maritime	-9002
▁amph	-9003
▁hect	-9004
iration	-9005
ioned	-9006
▁gap	-9007
▁brussels	-9008
▁pill	-9009
icz	-9010
▁rit	-9011
▁photographs	-9012
▁neil	-9013
sized	-9014
▁tin	-9015
fire	-9016
▁depict	-9017
▁terr	-9018
aughter	-9019
▁privately	-9020
▁electricity	-9021
▁interpret	-9022
▁otto	-9023
▁neighbouring	-9024
▁fus	-9025
▁valu	-9026
▁context	-9027
▁attacked	-9028
▁ties	-9029
dp	-9030
▁awa	-9031
▁experiences	-9032
.”	-9033
case	-9034
▁vegas	-9035
▁rector	-9036
▁allied	-9037
▁ere	-9038
▁dramatic	-9039
▁highlight	-9040
tel	-9041
borne	-9042
smith	-9043
▁merit	-9044
▁suburbs	-9045
akk	-9046
sha	-9047
▁organic	-9048
▁missions	-9049
▁variant	-9050
▁wickets	-9051
thy	-9052
▁edwards	-9053
aceous	-9054
▁jerry	-9055
▁buses	-9056
▁remote	-9057
record	-9058
urated	-9059
▁weak	-9060
minton	-9061
raham	-9062
▁pupils	-9063
oric	-9064
▁motorcycle	-9065
▁runway	-9066
▁jum	-9067
abled	-9068
atically	-9069
▁partially	-9070
post	-9071
▁comedian	-9072
riet	-9073
▁interchange	-9074
gus	-9075
▁romance	-9076
▁tum	-9077
common	-9078
▁bowling	-9079
▁hed	-9080
sum	-9081
▁mare	-9082
▁mental	-9083
▁switched	-9084
somet	-9085
gomery	-9086
▁voters	-9087
dar	-9088
▁rams	-9089
ulder	-9090
▁bobby	-9091
▁meetings	-9092
▁orbit	-9093
osaur	-9094
▁marry	-9095
▁miguel	-9096
▁torpedo	-9097
▁injuries	-9098
▁difference	-9099
▁cooperation	-9100
▁loaned	-9101
families	-9102
▁diplomat	-9103
▁atmosp	-9104
fordshire	-9105
venth	-9106
▁references	-9107
▁consultant	-9108
mor	-9109
▁badminton	-9110
▁shire	-9111
▁expressed	-9112
▁jal	-9113
▁orchid	-9114
▁shin	-9115
▁autumn	-9116
▁hik	-9117
▁corp	-9118
▁wheat	-9119
▁phosph	-9120
anim	-9121
▁freight	-9122
stre	-9123
▁vest	-9124
abe	-9125
▁empt	-9126
▁professionally	-9127
▁participants	-9128
ocene	-9129
iously	-9130
▁solutions	-9131
ancing	-9132
▁negative	-9133
▁winnipeg	-9134
▁indonesian	-9135
▁cyl	-9136
▁highland	-9137
▁testament	-9138
▁saxony	-9139
▁guatem	-9140
▁laz	-9141
▁monitor	-9142
▁tomb	-9143
bone	-9144
▁gabriel	-9145
?"	-9146
▁penalty	-9147
country	-9148
▁accused	-9149
names	-9150
▁bout	-9151
▁tasmania	-9152
▁percentage	-9153
▁bry	-9154
▁lak	-9155
▁cameroon	-9156
▁changing	-9157
▁gig	-9158
andro	-9159
▁mathematic	-9160
acre	-9161
called	-9162
▁lesser	-9163
▁mann	-9164
▁kazakhstan	-9165
▁bia	-9166
▁maintain	-9167
lings	-9168
▁functional	-9169
▁linear	-9170
▁00%.	-9171
sar	-9172
▁anime	-9173
▁topped	-9174
fs	-9175
▁returns	-9176
lex	-9177
▁accounts	-9178
mant	-9179
seat	-9180
▁vall	-9181
▁murphy	-9182
racts	-9183
ologists	-9184
▁everything	-9185
▁sits	-9186
▁rup	-9187
▁00'	-9188
develop	-9189
bur	-9190
▁personality	-9191
▁displayed	-9192
▁span	-9193
▁newfoundland	-9194
ensen	-9195
porter	-9196
▁mull	-9197
▁spider	-9198
▁phillips	-9199
▁thousands	-9200
▁bone	-9201
▁franz	-9202
eca	-9203
▁thing	-9204
▁distinctive	-9205
week	-9206
▁maurice	-9207
▁sustain	-9208
▁$000,000	-9209
last	-9210
▁poz	-9211
▁remov	-9212
▁preced	-9213
▁citation	-9214
oku	-9215
▁rounded	-9216
▁speedway	-9217
▁impress	-9218
▁enrolled	-9219
had	-9220
▁riders	-9221
▁anthrop	-9222
▁mounted	-9223
▁alpha	-9224
▁specimens	-9225
▁conservatory	-9226
awi	-9227
nataka	-9228
vant	-9229
▁supple	-9230
▁facing	-9231
▁uniform	-9232
▁montgomery	-9233
▁renaissance	-9234
▁canter	-9235
▁graphic	-9236
▁mt	-9237
▁larry	-9238
▁drivers	-9239
▁middles	-9240
piece	-9241
▁periods	-9242
▁diesel	-9243
▁artwork	-9244
▁magnet	-9245
▁cavalry	-9246
▁advisor	-9247
apo	-9248
aire	-9249
▁acquis	-9250
▁presbyter	-9251
▁cc	-9252
▁crystal	-9253
▁happened	-9254
▁stol	-9255
▁civic	-9256
▁electronics	-9257
▁iz	-9258
▁sequel	-9259
bri	-9260
▁deploy	-9261
ovan	-9262
▁copy	-9263
▁automatic	-9264
▁collective	-9265
lla	-9266
▁clinton	-9267
▁chilean	-9268
orge	-9269
▁herald	-9270
▁valent	-9271
▁uz	-9272
▁chamb	-9273
▁consort	-9274
▁princeton	-9275
▁iso	-9276
▁smart	-9277
▁adding	-9278
iaz	-9279
▁fitted	-9280
▁manner	-9281
▁knights	-9282
▁extending	-9283
auer	-9284
▁behavior	-9285
▁vij	-9286
▁ek	-9287
▁overlook	-9288
▁parishes	-9289
▁attracted	-9290
▁fled	-9291
▁assass	-9292
iture	-9293
▁sudden	-9294
▁ecl	-9295
▁spaces	-9296
▁bam	-9297
▁reh	-9298
▁basil	-9299
▁amazon	-9300
▁alleg	-9301
▁consecrated	-9302
berto	-9303
▁wald	-9304
icus	-9305
▁drain	-9306
▁stafford	-9307
cro	-9308
oi	-9309
▁teh	-9310
▁rabbi	-9311
▁achieve	-9312
univers	-9313
jiang	-9314
▁pastor	-9315
dong	-9316
▁dix	-9317
▁bach	-9318
▁reputation	-9319
▁emigrated	-9320
aji	-9321
▁crisis	-9322
▁aberde	-9323
▁aleks	-9324
▁cn	-9325
rang	-9326
▁movements	-9327
▁byz	-9328
▁kingston	-9329
▁arnold	-9330
▁honey	-9331
▁perc	-9332
▁competes	-9333
▁annex	-9334
▁exception	-9335
ference	-9336
▁plateau	-9337
▁theological	-9338
▁emir	-9339
▁budapest	-9340
▁fabric	-9341
▁witness	-9342
gae	-9343
uline	-9344
disc	-9345
▁sag	-9346
graded	-9347
▁sacred	-9348
▁causing	-9349
;"|	-9350
▁ps	-9351
▁julian	-9352
▁watson	-9353
▁eddie	-9354
illes	-9355
▁width	-9356
▁diverse	-9357
▁relegation	-9358
▁oz	-9359
▁mansion	-9360
▁lomb	-9361
▁karnataka	-9362
▁tibet	-9363
▁hundreds	-9364
ategy	-9365
▁vine	-9366
▁andhra	-9367
▁flights	-9368
▁ub	-9369
boys	-9370
quet	-9371
▁prussia	-9372
▁civilian	-9373
▁anthology	-9374
▁mainstream	-9375
▁traveled	-9376
▁tea	-9377
▁helsinki	-9378
▁strategic	-9379
▁excellence	-9380
▁rout	-9381
▁pyram	-9382
▁vul	-9383
▁lil	-9384
▁bradford	-9385
–000	-9386
▁profession	-9387
▁00–00,	-9388
▁missionary	-9389
▁aug	-9390
▁berk	-9391
▁resumed	-9392
aa	-9393
▁woodland	-9394
▁mick	-9395
▁dish	-9396
▁yu	-9397
▁violence	-9398
▁</	-9399
▁corresponding	-9400
▁leonard	-9401
▁meat	-9402
▁streak	-9403
making	-9404
▁liberty	-9405
▁affected	-9406
▁massive	-9407
▁territorial	-9408
▁decre	-9409
▁columbus	-9410
▁arrival	-9411
▁departure	-9412
▁tribes	-9413
▁gilbert	-9414
▁proteins	-9415
mn	-9416
▁000-000	-9417
▁prosp	-9418
▁odd	-9419
▁parking	-9420
▁raise	-9421
athlon	-9422
drew	-9423
▁enjoyed	-9424
▁lex	-9425
▁apparently	-9426
▁ruins	-9427
▁professionals	-9428
oven	-9429
jer	-9430
review	-9431
▁alum	-9432
nut	-9433
▁fear	-9434
▁hole	-9435
▁tiger	-9436
▁latino	-9437
▁acoustic	-9438
▁00/00	-9439
mother	-9440
▁wedding	-9441
▁naples	-9442
▁kot	-9443
onist	-9444
▁ministers	-9445
bie	-9446
john	-9447
▁behalf	-9448
▁controversial	-9449
▁harm	-9450
▁happy	-9451
▁valid	-9452
▁ruler	-9453
▁sailing	-9454
ados	-9455
▁hort	-9456
rate	-9457
uzz	-9458
▁lob	-9459
ecting	-9460
▁segments	-9461
▁warriors	-9462
▁diploma	-9463
rt	-9464
▁battery	-9465
main	-9466
▁daw	-9467
▁lying	-9468
▁angle	-9469
▁cluster	-9470
xy	-9471
▁promin	-9472
uru	-9473
oons	-9474
▁archer	-9475
▁strategy	-9476
▁umb	-9477
▁dund	-9478
ouses	-9479
▁oliv	-9480
eto	-9481
▁sheep	-9482
▁truth	-9483
▁westminster	-9484
▁coordinates	-9485
▁chal	-9486
tre	-9487
▁favorite	-9488
adian	-9489
▁estonian	-9490
▁(0.00	-9491
▁armenia	-9492
▁martial	-9493
▁requirements	-9494
ogle	-9495
▁namib	-9496
▁knockout	-9497
▁dorsal	-9498
cole	-9499
▁subsc	-9500
▁nigerian	-9501
▁abdul	-9502
ku	-9503
▁shif	-9504
▁sket	-9505
▁crist	-9506
▁earthquake	-9507
pher	-9508
▁facade	-9509
▁yan	-9510
▁bhar	-9511
▁cros	-9512
▁councillor	-9513
▁gauge	-9514
verse	-9515
▁democrats	-9516
▁variable	-9517
▁kang	-9518
▁remembered	-9519
lay	-9520
▁inches	-9521
▁scores	-9522
▁biography	-9523
▁fee	-9524
▁eccles	-9525
-00,	-9526
▁nicknamed	-9527
▁exclud	-9528
keep	-9529
▁artific	-9530
▁preliminary	-9531
▁rust	-9532
oples	-9533
▁lyon	-9534
▁keyboard	-9535
▁canterbury	-9536
encia	-9537
▁trainer	-9538
shah	-9539
anning	-9540
▁aub	-9541
▁experienced	-9542
▁epit	-9543
▁passion	-9544
▁courthouse	-9545
▁indicate	-9546
▁strat	-9547
▁comprising	-9548
▁closest	-9549
.<	-9550
▁rag	-9551
▁understanding	-9552
▁send	-9553
▁flank	-9554
▁prol	-9555
▁considerable	-9556
▁slo	-9557
▁bore	-9558
▁matters	-9559
▁guests	-9560
angered	-9561
▁appropri	-9562
▁das	-9563
comune	-9564
▁lens	-9565
▁processes	-9566
▁bounded	-9567
▁northampton	-9568
imo	-9569
▁recur	-9570
▁plains	-9571
alom	-9572
pany	-9573
▁siege	-9574
▁throne	-9575
▁practiced	-9576
bas	-9577
alp	-9578
soc	-9579
▁cardiff	-9580
riot	-9581
▁dos	-9582
▁alcohol	-9583
onaut	-9584
▁hod	-9585
▁proport	-9586
▁zar	-9587
▁joan	-9588
heart	-9589
▁venues	-9590
▁consumer	-9591
▁centimeters	-9592
▁inhabited	-9593
▁cinemat	-9594
▁hughes	-9595
▁evalu	-9596
▁registr	-9597
ifax	-9598
▁sep	-9599
▁chan	-9600
▁assists	-9601
▁ole	-9602
▁withdrew	-9603
▁intellect	-9604
urers	-9605
ursday	-9606
▁pomeranian	-9607
five	-9608
▁auto	-9609
bh	-9610
▁clarke	-9611
writing	-9612
▁jet	-9613
▁chrom	-9614
_00	-9615
game	-9616
▁nikol	-9617
ribute	-9618
▁verse	-9619
▁cardinals	-9620
▁sentenced	-9621
front	-9622
ords	-9623
▁conflu	-9624
▁consp	-9625
▁dominated	-9626
restrial	-9627
▁00-0	-9628
▁commanding	-9629
▁root	-9630
▁framework	-9631
▁muk	-9632
▁philosopher	-9633
▁slav	-9634
▁sofia	-9635
▁excellent	-9636
▁arist	-9637
▁companion	-9638
▁presid	-9639
▁falling	-9640
rous	-9641
▁developer	-9642
▁subdivision	-9643
.000	-9644
▁capita	-9645
▁sind	-9646
▁holder	-9647
▁medalist	-9648
ifying	-9649
▁minority	-9650
▁struck	-9651
esis	-9652
▁dna	-9653
▁gujar	-9654
icia	-9655
▁doors	-9656
uidae	-9657
▁varies	-9658
▁deer	-9659
▁advocate	-9660
inos	-9661
▁suggests	-9662
▁gand	-9663
▁fernando	-9664
▁radical	-9665
ente	-9666
than	-9667
▁speaking	-9668
apa	-9669
mons	-9670
▁ore	-9671
▁concerns	-9672
▁survive	-9673
▁travelled	-9674
kel	-9675
▁anglo	-9676
▁hd	-9677
imi	-9678
wind	-9679
▁assisted	-9680
avier	-9681
ilda	-9682
▁nob	-9683
▁plaza	-9684
▁font	-9685
▁reef	-9686
▁isaac	-9687
▁macedonia	-9688
▁ik	-9689
▁transmission	-9690
ogan	-9691
▁porch	-9692
stadt	-9693
▁floors	-9694
▁0/00	-9695
▁epic	-9696
▁undert	-9697
▁pus	-9698
chron	-9699
▁literally	-9700
aning	-9701
▁lon	-9702
rons	-9703
▁begun	-9704
▁limits	-9705
▁allies	-9706
▁wilderness	-9707
▁(0000–00)	-9708
mc	-9709
▁ruth	-9710
municip	-9711
▁peoples	-9712
▁portions	-9713
fully	-9714
▁assets	-9715
▁recru	-9716
ariidae	-9717
▁istan	-9718
▁kiss	-9719
▁galaxy	-9720
cap	-9721
▁guer	-9722
qi	-9723
bidae	-9724
▁abstract	-9725
▁congressional	-9726
▁geometridae	-9727
▁constellation	-9728
▁bloom	-9729
▁archive	-9730
▁archives	-9731
▁istanbul	-9732
▁nathan	-9733
▁pursue	-9734
▁localities	-9735
▁crowd	-9736
▁×	-9737
▁wealthy	-9738
overs	-9739
▁aimed	-9740
▁requires	-9741
▁jews	-9742
▁shipping	-9743
▁apprent	-9744
▁fired	-9745
▁basal	-9746
▁rider	-9747
atl	-9748
▁infl	-9749
▁zamb	-9750
rolling	-9751
▁primera	-9752
▁virtual	-9753
▁wu	-9754
▁listen	-9755
▁hotels	-9756
▁000.00	-9757
ports	-9758
▁(000.0	-9759
▁susan	-9760
▁battles	-9761
▁grave	-9762
▁burial	-9763
▁dow	-9764
fiction	-9765
▁presbyterian	-9766
▁ster	-9767
▁crus	-9768
▁mate	-9769
▁faces	-9770
▁volunteers	-9771
uras	-9772
▁scrap	-9773
▁remark	-9774
▁gates	-9775
▁tommy	-9776
▁nominations	-9777
▁indianapolis	-9778
▁derives	-9779
▁mcg	-9780
▁turb	-9781
cano	-9782
ahu	-9783
▁rip	-9784
▁worker	-9785
active	-9786
▁clif	-9787
▁manga	-9788
pac	-9789
▁cauc	-9790
▁archdi	-9791
▁guardian	-9792
▁riv	-9793
▁celtic	-9794
▁ank	-9795
▁aims	-9796
▁moss	-9797
▁stable	-9798
▁jin	-9799
▁clare	-9800
▁belgrade	-9801
▁portrayed	-9802
nesday	-9803
▁suffering	-9804
▁myster	-9805
▁promoting	-9806
▁emot	-9807
▁settlers	-9808
onne	-9809
▁peaks	-9810
▁tortric	-9811
▁"0	-9812
▁allan	-9813
▁simpl	-9814
▁indies	-9815
iated	-9816
▁scat	-9817
▁fossil	-9818
▁snake	-9819
▁'00	-9820
▁godd	-9821
▁mythology	-9822
▁stick	-9823
rington	-9824
▁asteroid	-9825
oshi	-9826
fare	-9827
olly	-9828
▁pirates	-9829
▁nationwide	-9830
mur	-9831
anmar	-9832
ultane	-9833
ilit	-9834
▁apartment	-9835
▁populations	-9836
▁catalog	-9837
dc	-9838
▁breeding	-9839
▁populated	-9840
ayed	-9841
▁trinidad	-9842
▁pomerania	-9843
isted	-9844
riptions	-9845
los	-9846
▁afl	-9847
▁crossed	-9848
▁platinum	-9849
▁vertical	-9850
▁stein	-9851
▁useful	-9852
▁endangered	-9853
▁ahmad	-9854
▁hurling	-9855
eno	-9856
jin	-9857
▁dischar	-9858
▁vicar	-9859
alus	-9860
▁postal	-9861
▁opportunities	-9862
▁secure	-9863
esp	-9864
▁tehs	-9865
▁democracy	-9866
▁paras	-9867
bral	-9868
▁spelling	-9869
▁circulation	-9870
▁rebell	-9871
▁liberation	-9872
adows	-9873
▁brands	-9874
uto	-9875
▁halifax	-9876
▁discip	-9877
shan	-9878
ilder	-9879
▁dame	-9880
▁questions	-9881
blo	-9882
▁tale	-9883
▁prair	-9884
▁chancellor	-9885
▁spl	-9886
▁organisations	-9887
ieu	-9888
▁identical	-9889
▁restricted	-9890
▁acclaimed	-9891
▁reduce	-9892
adal	-9893
▁peng	-9894
icance	-9895
▁cod	-9896
▁scientists	-9897
▁mete	-9898
▁dong	-9899
▁cuban	-9900
▁ply	-9901
▁receptor	-9902
▁gem	-9903
▁tiss	-9904
isle	-9905
▁belfast	-9906
▁bea	-9907
▁hack	-9908
ruption	-9909
▁rochester	-9910
izer	-9911
▁telugu	-9912
▁sod	-9913
atha	-9914
▁kamp	-9915
▁simultane	-9916
▁rookie	-9917
▁resource	-9918
cu	-9919
▁geographic	-9920
emed	-9921
▁diction	-9922
half	-9923
▁trig	-9924
opened	-9925
▁khorasan	-9926
▁chim	-9927
▁bee	-9928
▁gly	-9929
recht	-9930
▁consolid	-9931
▁waterfall	-9932
zew	-9933
▁thanks	-9934
▁lutheran	-9935
▁stamp	-9936
rag	-9937
through	-9938
▁respective	-9939
opy	-9940
▁sau	-9941
▁significantly	-9942
▁declined	-9943
▁dé	-9944
▁interred	-9945
pel	-9946
woman	-9947
▁beneath	-9948
▁machines	-9949
gold	-9950
▁decom	-9951
elong	-9952
▁rarely	-9953
▁oakland	-9954
▁$00,000,	-9955
▁significance	-9956
amba	-9957
bot	-9958
▁bars	-9959
▁namely	-9960
▁granite	-9961
▁alps	-9962
lez	-9963
▁emeritus	-9964
▁falk	-9965
▁shock	-9966
▁sé	-9967
▁suburban	-9968
▁harvey	-9969
▁anders	-9970
▁measuring	-9971
icit	-9972
▁editors	-9973
▁solomon	-9974
▁drugs	-9975
▁harmon	-9976
dorf	-9977
ogical	-9978
▁occasion	-9979
▁jas	-9980
▁anten	-9981
▁workshop	-9982
▁parad	-9983
▁latvia	-9984
▁baroque	-9985
▁chase	-9986
▁stems	-9987
uchi	-9988
▁advantage	-9989
vor	-9990
▁consul	-9991
▁surgeon	-9992
cester	-9993
▁archdiocese	-9994
hf	-9995
rency	-9996
ecution	-9997
▁fork	-9998
▁noctuidae	-9999
▁ris	-10000
▁pep	-10001
▁charges	-10002
▁detailed	-10003
▁ans	-10004
▁crowned	-10005
yst	-10006
tes	-10007
iler	-10008
▁telephone	-10009
▁mw	-10010
▁pla	-10011
▁fiji	-10012
bred	-10013
▁globe	-10014
lived	-10015
alli	-10016
▁renovated	-10017
▁clothing	-10018
▁meh	-10019
▁feder	-10020
elia	-10021
▁beck	-10022
▁duch	-10023
▁ti	-10024
ologic	-10025
present	-10026
aby	-10027
▁peaking	-10028
▁bringing	-10029
just	-10030
athy	-10031
▁files	-10032
▁todd	-10033
▁zero	-10034
▁screenplay	-10035
▁mv	-10036
essa	-10037
▁eighteen	-10038
▁certificate	-10039
▁erebidae	-10040
▁printing	-10041
▁continuous	-10042
▁translator	-10043
▁flash	-10044
▁scorer	-10045
▁strict	-10046
whe	-10047
▁wallace	-10048
▁writings	-10049
ullivan	-10050
▁recommended	-10051
▁arabia	-10052
▁superint	-10053
made	-10054
▁societ	-10055
blue	-10056
▁craft	-10057
▁descendants	-10058
▁posterior	-10059
▁lec	-10060
lis	-10061
▁thesis	-10062
mand	-10063
great	-10064
▁receives	-10065
▁portraits	-10066
electric	-10067
▁gymnastics	-10068
▁zo	-10069
▁benefit	-10070
arium	-10071
uning	-10072
▁cb	-10073
-0-	-10074
▁jaw	-10075
▁kad	-10076
▁cly	-10077
▁spencer	-10078
sn	-10079
▁compact	-10080
▁bankrupt	-10081
▁afc	-10082
▁mohammad	-10083
▁exclusive	-10084
atorial	-10085
▁preserve	-10086
▁learn	-10087
▁blackish	-10088
▁tril	-10089
▁encounter	-10090
eed	-10091
▁instance	-10092
▁performer	-10093
▁françois	-10094
vas	-10095
▁gender	-10096
▁victories	-10097
▁strait	-10098
inch	-10099
▁influences	-10100
▁fiba	-10101
▁hammer	-10102
▁immigrants	-10103
▁neut	-10104
▁educator	-10105
▁interface	-10106
▁museums	-10107
▁gif	-10108
▁maría	-10109
▁skiing	-10110
▁confluence	-10111
▁artificial	-10112
▁haven	-10113
that	-10114
▁llc	-10115
▁welf	-10116
▁upcoming	-10117
iao	-10118
uku	-10119
▁specializing	-10120
urian	-10121
▁wis	-10122
▁alder	-10123
▁manage	-10124
▁vladimir	-10125
inge	-10126
▁usual	-10127
▁jen	-10128
▁severe	-10129
▁£00	-10130
▁sight	-10131
▁abraham	-10132
ashed	-10133
▁bohem	-10134
▁committees	-10135
gb	-10136
▁viscount	-10137
iliary	-10138
▁leop	-10139
arta	-10140
▁wards	-10141
cott	-10142
▁châ	-10143
▁belief	-10144
▁rhythm	-10145
mr	-10146
gorith	-10147
▁adrian	-10148
▁structural	-10149
amar	-10150
▁hun	-10151
▁frankfurt	-10152
▁tortricidae	-10153
▁tales	-10154
▁rectang	-10155
▁ré	-10156
▁wants	-10157
club	-10158
▁persp	-10159
▁arrangement	-10160
zyn	-10161
▁intellectual	-10162
▁yield	-10163
ellidae	-10164
girl	-10165
▁ronald	-10166
prof	-10167
▁eup	-10168
▁alge	-10169
▁bennett	-10170
rooms	-10171
▁numbered	-10172
ès	-10173
▁laura	-10174
mot	-10175
▁estates	-10176
asium	-10177
▁montane	-10178
▁0000-00,	-10179
late	-10180
▁closure	-10181
▁inaugurated	-10182
▁egg	-10183
▁involves	-10184
▁closing	-10185
▁interactive	-10186
▁bare	-10187
▁ci	-10188
say	-10189
christ	-10190
▁sept	-10191
▁davies	-10192
▁elsewhere	-10193
ested	-10194
essed	-10195
▁oxid	-10196
▁cataly	-10197
▁beth	-10198
add	-10199
ensions	-10200
▁lj	-10201
▁posts	-10202
▁google	-10203
▁rejected	-10204
rud	-10205
▁theatrical	-10206
▁terrestrial	-10207
▁fortress	-10208
▁santos	-10209
▁tyr	-10210
▁geoff	-10211
▁joins	-10212
▁practices	-10213
inda	-10214
inia	-10215
▁teaches	-10216
sing	-10217
▁kre	-10218
▁deriv	-10219
▁chest	-10220
icle	-10221
oked	-10222
▁neck	-10223
▁governorate	-10224
beat	-10225
▁hurric	-10226
▁prisoners	-10227
▁sank	-10228
▁carrier	-10229
▁algorith	-10230
▁encompasses	-10231
▁coron	-10232
▁syrian	-10233
▁message	-10234
▁chlor	-10235
▁chorus	-10236
▁mathematician	-10237
▁optim	-10238
▁legendary	-10239
oca	-10240
uman	-10241
▁disco	-10242
▁guar	-10243
ussion	-10244
▁hidden	-10245
▁strikeouts	-10246
▁libert	-10247
inations	-10248
▁bio	-10249
▁tract	-10250
ups	-10251
▁plantation	-10252
rog	-10253
such	-10254
ophyll	-10255
▁governed	-10256
▁inspector	-10257
▁layer	-10258
▁gul	-10259
▁swing	-10260
▁clients	-10261
▁chore	-10262
▁farms	-10263
othe	-10264
▁boards	-10265
▁shadow	-10266
▁honored	-10267
▁plastic	-10268
▁emmy	-10269
▁loren	-10270
wald	-10271
▁myanmar	-10272
▁sixty	-10273
arab	-10274
▁ey	-10275
odia	-10276
▁beta	-10277
▁gymnasium	-10278
aku	-10279
uni	-10280
path	-10281
▁conventional	-10282
▁incom	-10283
▁gradually	-10284
wy	-10285
amine	-10286
▁obsc	-10287
illing	-10288
▁dag	-10289
▁surren	-10290
▁releasing	-10291
▁legislation	-10292
▁wiel	-10293
▁bulld	-10294
▁brownish	-10295
▁geographical	-10296
▁diver	-10297
▁antiqu	-10298
▁reprod	-10299
▁referee	-10300
▁cater	-10301
yler	-10302
named	-10303
ipel	-10304
▁dart	-10305
▁hybrid	-10306
▁finding	-10307
▁ethiopia	-10308
▁dot	-10309
▁thriller	-10310
serv	-10311
▁ceremon	-10312
▁statement	-10313
ishi	-10314
▁bark	-10315
▁rey	-10316
▁preston	-10317
▁vast	-10318
agi	-10319
andra	-10320
▁reformed	-10321
▁gentle	-10322
▁concentration	-10323
▁suffolk	-10324
▁ready	-10325
▁controversy	-10326
▁substr	-10327
▁bicycle	-10328
▁circular	-10329
▁marion	-10330
▁performers	-10331
▁push	-10332
▁zip	-10333
▁buddhist	-10334
▁valuable	-10335
▁henderson	-10336
▁differences	-10337
boards	-10338
▁louise	-10339
▁bast	-10340
▁sox	-10341
▁arsen	-10342
▁phrase	-10343
▁shallow	-10344
▁monk	-10345
▁morph	-10346
▁león	-10347
▁composers	-10348
▁breaking	-10349
atta	-10350
▁nordic	-10351
▁evil	-10352
▁conferences	-10353
▁rosen	-10354
▁profile	-10355
link	-10356
omi	-10357
▁tampa	-10358
▁md	-10359
▁authored	-10360
▁bis	-10361
reviewed	-10362
▁nationally	-10363
▁guatemala	-10364
▁instructor	-10365
▁inspiration	-10366
▁associations	-10367
▁bm	-10368
▁bowler	-10369
▁spur	-10370
▁ruling	-10371
▁telecommun	-10372
▁pric	-10373
▁angels	-10374
▁treated	-10375
▁krak	-10376
▁malta	-10377
selling	-10378
▁tehran	-10379
lat	-10380
▁cun	-10381
▁loyal	-10382
▁benedict	-10383
▁turin	-10384
▁supplement	-10385
phil	-10386
▁characteristics	-10387
▁steps	-10388
▁reven	-10389
manuel	-10390
▁texts	-10391
▁characteristic	-10392
▁chad	-10393
▁dee	-10394
▁kitchen	-10395
agonist	-10396
▁oxy	-10397
▁atom	-10398
▁moves	-10399
▁angola	-10400
educ	-10401
▁filming	-10402
▁shorter	-10403
acles	-10404
▁biał	-10405
▁welfare	-10406
▁enters	-10407
▁essays	-10408
▁leone	-10409
eon	-10410
zel	-10411
▁lights	-10412
ayette	-10413
ikk	-10414
▁roth	-10415
ondiss	-10416
▁crafts	-10417
▁00000.	-10418
▁trails	-10419
aso	-10420
▁backing	-10421
▁cruc	-10422
▁hood	-10423
▁confederation	-10424
uesday	-10425
▁nig	-10426
▁cru	-10427
▁random	-10428
▁mh	-10429
▁andrews	-10430
amy	-10431
izz	-10432
sson	-10433
▁sop	-10434
▁insects	-10435
▁spar	-10436
▁fungi	-10437
▁codes	-10438
▁ace	-10439
god	-10440
nr	-10441
▁dunc	-10442
▁absence	-10443
▁struggle	-10444
agers	-10445
▁aerial	-10446
▁preservation	-10447
▁chat	-10448
▁criticism	-10449
▁dust	-10450
nań	-10451
ilian	-10452
▁align	-10453
▁tempor	-10454
mail	-10455
▁flour	-10456
▁cyr	-10457
▁opponent	-10458
oster	-10459
ullah	-10460
cell	-10461
illon	-10462
▁amend	-10463
▁meteor	-10464
▁delegate	-10465
▁updated	-10466
▁varieties	-10467
covered	-10468
▁defunct	-10469
▁illegal	-10470
▁reyn	-10471
▁clim	-10472
aze	-10473
insky	-10474
agement	-10475
▁essential	-10476
▁banned	-10477
▁tehsil	-10478
▁heats	-10479
▁filipino	-10480
▁mg	-10481
▁altar	-10482
▁volcan	-10483
▁cameron	-10484
▁extract	-10485
▁cs	-10486
▁auditor	-10487
▁jobs	-10488
▁automobile	-10489
▁metall	-10490
▁gustav	-10491
▁distinction	-10492
court	-10493
occ	-10494
▁exce	-10495
▁detective	-10496
▁concerning	-10497
▁prototype	-10498
▁jail	-10499
▁carne	-10500
▁victims	-10501
super	-10502
▁treasurer	-10503
▁lore	-10504
▁derbyshire	-10505
▁lamp	-10506
-00.	-10507
▁banner	-10508
sten	-10509
▁windsor	-10510
▁byzantine	-10511
ocation	-10512
▁dreams	-10513
▁nineteenth	-10514
▁reportedly	-10515
▁bundesliga	-10516
hya	-10517
▁til	-10518
▁campaigns	-10519
church	-10520
▁mario	-10521
▁hardware	-10522
▁ludwig	-10523
▁poznań	-10524
turn	-10525
when	-10526
elfth	-10527
lass	-10528
ardi	-10529
▁involvement	-10530
▁andré	-10531
▁patric	-10532
▁gan	-10533
▁accompany	-10534
▁(0000–00),	-10535
▁fi	-10536
▁colombian	-10537
▁polar	-10538
▁marin	-10539
▁prairie	-10540
▁yar	-10541
▁sitcom	-10542
▁cann	-10543
ondo	-10544
▁nem	-10545
hurst	-10546
eared	-10547
▁judicial	-10548
▁protestant	-10549
etti	-10550
▁bays	-10551
▁portfol	-10552
▁achiev	-10553
▁ket	-10554
omorph	-10555
gre	-10556
▁focusing	-10557
▁respond	-10558
▁curling	-10559
▁quarterfinals	-10560
▁aberdeen	-10561
▁lut	-10562
▁pere	-10563
▁seal	-10564
▁rolling	-10565
▁eugene	-10566
uga	-10567
▁inhib	-10568
▁option	-10569
▁householder	-10570
▁doesn	-10571
esia	-10572
▁lung	-10573
▁dragons	-10574
▁servant	-10575
abilities	-10576
▁burma	-10577
▁naut	-10578
▁pref	-10579
▁mouse	-10580
▁enroll	-10581
esa	-10582
russ	-10583
▁bases	-10584
▁maintains	-10585
▁voy	-10586
estab	-10587
▁lynn	-10588
▁arrondiss	-10589
bahn	-10590
bir	-10591
▁owen	-10592
▁luck	-10593
▁mixture	-10594
▁rode	-10595
▁richardson	-10596
lando	-10597
▁shakes	-10598
▁tallest	-10599
▁deh	-10600
▁bryan	-10601
df	-10602
▁wider	-10603
▁superintendent	-10604
akov	-10605
iology	-10606
▁carlo	-10607
▁referring	-10608
▁wednesday	-10609
history	-10610
french	-10611
▁centres	-10612
gent	-10613
phis	-10614
▁fen	-10615
little	-10616
▁gerald	-10617
▁tube	-10618
▁amalgam	-10619
▁footage	-10620
▁directing	-10621
▁colin	-10622
▁crypt	-10623
othes	-10624
anthrop	-10625
▁zool	-10626
▁rankings	-10627
=0|	-10628
▁sponsorship	-10629
azar	-10630
▁cabin	-10631
▁enlisted	-10632
iffe	-10633
▁ellis	-10634
cock	-10635
mary	-10636
▁camps	-10637
▁libraries	-10638
▁ml	-10639
▁tight	-10640
▁ferdin	-10641
▁supplies	-10642
designated	-10643
▁researchers	-10644
▁unofficial	-10645
ocar	-10646
▁botanical	-10647
tur	-10648
▁facilit	-10649
▁definition	-10650
orient	-10651
▁fraser	-10652
▁mandal	-10653
▁taj	-10654
▁server	-10655
speaking	-10656
produced	-10657
page	-10658
struct	-10659
▁$0,000	-10660
ersed	-10661
.'	-10662
hey	-10663
itter	-10664
▁airing	-10665
▁patt	-10666
▁bishops	-10667
▁francesco	-10668
▁costs	-10669
▁acquisition	-10670
▁lords	-10671
▁commod	-10672
▁wicket	-10673
▁unless	-10674
▁destination	-10675
▁performs	-10676
▁leip	-10677
▁posthum	-10678
▁lithuanian	-10679
▁electorate	-10680
▁rhine	-10681
▁speakers	-10682
▁ussr	-10683
▁reporting	-10684
sout	-10685
▁ramp	-10686
▁choose	-10687
thorn	-10688
camp	-10689
jack	-10690
know	-10691
▁fruits	-10692
▁geneva	-10693
tc	-10694
▁bergen	-10695
isan	-10696
▁neither	-10697
won	-10698
▁lé	-10699
▁nancy	-10700
▁alumni	-10701
"'	-10702
▁highways	-10703
▁ensure	-10704
▁variations	-10705
adh	-10706
▁dw	-10707
▁herman	-10708
opol	-10709
▁albany	-10710
rand	-10711
estrian	-10712
▁driven	-10713
▁sanctuary	-10714
▁titular	-10715
plete	-10716
▁curric	-10717
▁detail	-10718
▁guards	-10719
▁displays	-10720
▁subdivided	-10721
▁kenneth	-10722
▁stro	-10723
▁atlét	-10724
▁hospitals	-10725
▁heaven	-10726
▁advice	-10727
rows	-10728
▁achievements	-10729
”.	-10730
▁lancaster	-10731
▁yellowish	-10732
sko	-10733
asters	-10734
▁cove	-10735
▁depression	-10736
▁yank	-10737
itan	-10738
▁danny	-10739
▁supplied	-10740
lies	-10741
▁syndrome	-10742
ango	-10743
▁sample	-10744
gg	-10745
vian	-10746
▁establishing	-10747
▁simul	-10748
▁repair	-10749
▁relationships	-10750
▁tuber	-10751
▁kee	-10752
acular	-10753
▁accredited	-10754
▁lago	-10755
▁edmund	-10756
▁mé	-10757
tra	-10758
▁haj	-10759
▁funeral	-10760
▁lover	-10761
▁bik	-10762
▁psychiat	-10763
▁rhe	-10764
opsis	-10765
▁liner	-10766
▁burned	-10767
ocal	-10768
▁computing	-10769
▁alter	-10770
icester	-10771
▁stephan	-10772
▁readers	-10773
▁policies	-10774
▁bailey	-10775
▁gel	-10776
▁dogs	-10777
olition	-10778
▁wrong	-10779
▁auxiliary	-10780
▁dismissed	-10781
lik	-10782
▁hollow	-10783
▁councillors	-10784
agua	-10785
gang	-10786
▁archipel	-10787
000000	-10788
▁longitude	-10789
▁suz	-10790
imination	-10791
books	-10792
▁delivery	-10793
▁palestine	-10794
▁retro	-10795
▁gn	-10796
school	-10797
lav	-10798
upt	-10799
▁hano	-10800
▁0000-	-10801
▁generations	-10802
▁shelter	-10803
▁marble	-10804
▁invented	-10805
▁failing	-10806
▁exterior	-10807
alla	-10808
athi	-10809
▁slalom	-10810
▁confederate	-10811
▁quint	-10812
▁malaysian	-10813
▁thursday	-10814
hestan	-10815
▁alive	-10816
▁flies	-10817
▁pga	-10818
▁prohib	-10819
▁recovered	-10820
▁agents	-10821
ete	-10822
▁pupil	-10823
rised	-10824
▁graphics	-10825
▁initiated	-10826
cing	-10827
▁collector	-10828
▁hc	-10829
▁gift	-10830
hang	-10831
was	-10832
▁relation	-10833
hat	-10834
▁signs	-10835
▁shooter	-10836
nian	-10837
yar	-10838
▁zam	-10839
▁graves	-10840
▁chennai	-10841
▁variants	-10842
rak	-10843
olin	-10844
▁enlar	-10845
▁presidency	-10846
agonal	-10847
▁pied	-10848
▁dubai	-10849
▁reddish	-10850
▁airs	-10851
▁denomin	-10852
▁arctic	-10853
▁supervis	-10854
▁elong	-10855
▁uzbek	-10856
▁waste	-10857
▁brooks	-10858
▁inscription	-10859
aud	-10860
peare	-10861
nort	-10862
▁taxonom	-10863
▁botanist	-10864
gil	-10865
ucker	-10866
▁breuning	-10867
▁nin	-10868
▁rao	-10869
▁silva	-10870
▁heavyweight	-10871
▁snout	-10872
doctor	-10873
▁twelfth	-10874
kok	-10875
▁meter	-10876
▁teeth	-10877
▁zagreb	-10878
about	-10879
ruit	-10880
▁concur	-10881
▁erik	-10882
▁gaining	-10883
▁pab	-10884
inson	-10885
▁heading	-10886
▁thunder	-10887
▁maurit	-10888
▁sene	-10889
▁kaw	-10890
▁fortune	-10891
▁polytechn	-10892
▁publishers	-10893
thal	-10894
eler	-10895
▁dip	-10896
▁exposed	-10897
▁cruis	-10898
mah	-10899
▁deals	-10900
cement	-10901
▁beam	-10902
▁deck	-10903
▁preparation	-10904
icist	-10905
▁carroll	-10906
▁murdered	-10907
raz	-10908
▁celebration	-10909
▁implementation	-10910
▁tok	-10911
▁edu	-10912
got	-10913
▁vegetation	-10914
▁concern	-10915
there	-10916
▁rectangular	-10917
ifa	-10918
quer	-10919
rine	-10920
▁senators	-10921
▁spiders	-10922
▁viewers	-10923
▁yun	-10924
oft	-10925
▁edges	-10926
▁exhibits	-10927
▁immediate	-10928
cut	-10929
tenham	-10930
▁doub	-10931
hung	-10932
▁flam	-10933
iciency	-10934
▁ordinary	-10935
anton	-10936
▁connections	-10937
iae	-10938
▁franco	-10939
▁coral	-10940
▁concerned	-10941
▁arb	-10942
atham	-10943
▁shen	-10944
▁anterior	-10945
▁chambers	-10946
▁suitable	-10947
pu	-10948
▁rhodes	-10949
▁leslie	-10950
▁sulf	-10951
▁computers	-10952
▁emil	-10953
▁aaron	-10954
▁nominee	-10955
icing	-10956
▁moor	-10957
roid	-10958
▁extend	-10959
igi	-10960
▁roller	-10961
▁interim	-10962
▁pete	-10963
▁dangerous	-10964
▁spac	-10965
heng	-10966
▁perm	-10967
▁marcus	-10968
▁manif	-10969
▁specializes	-10970
▁affair	-10971
▁attendance	-10972
▁archipelago	-10973
▁regulations	-10974
▁weapon	-10975
▁friendship	-10976
▁mcl	-10977
▁hosting	-10978
appa	-10979
▁armstrong	-10980
▁itunes	-10981
▁entries	-10982
▁poets	-10983
▁recruited	-10984
elt	-10985
france	-10986
▁substantial	-10987
tom	-10988
wyn	-10989
czy	-10990
wara	-10991
▁correspondent	-10992
▁independently	-10993
▁secured	-10994
▁dwar	-10995
▁worcester	-10996
▁systematic	-10997
rys	-10998
▁brah	-10999
▁tone	-11000
▁trunk	-11001
▁nursing	-11002
▁plymouth	-11003
ocket	-11004
graph	-11005
▁gt	-11006
ei	-11007
▁principles	-11008
▁suk	-11009
▁atlético	-11010
▁diseases	-11011
▁darker	-11012
▁shaped	-11013
▁stere	-11014
▁conven	-11015
▁commentary	-11016
▁sey	-11017
alb	-11018
andi	-11019
beck	-11020
▁governments	-11021
▁lucas	-11022
▁closer	-11023
▁similarly	-11024
▁lateral	-11025
▁leipzig	-11026
▁ethn	-11027
shi	-11028
▁neo	-11029
▁dome	-11030
▁eleventh	-11031
▁filed	-11032
▁nagar	-11033
atern	-11034
▁relating	-11035
sun	-11036
loresc	-11037
▁exit	-11038
▁generated	-11039
▁belle	-11040
prov	-11041
▁cheese	-11042
▁usage	-11043
▁virus	-11044
▁veterans	-11045
▁manila	-11046
▁paraguay	-11047
▁manufacturers	-11048
▁consc	-11049
▁algebra	-11050
▁configuration	-11051
▁slovenian	-11052
▁dud	-11053
▁defended	-11054
▁segunda	-11055
00'	-11056
▁succession	-11057
iol	-11058
▁flora	-11059
▁noise	-11060
▁logo	-11061
▁gibson	-11062
inas	-11063
▁zen	-11064
ovsky	-11065
▁declar	-11066
airy	-11067
▁fiscal	-11068
▁mild	-11069
▁challenger	-11070
▁encycl	-11071
▁namibia	-11072
▁dispute	-11073
rab	-11074
esco	-11075
▁wrestler	-11076
▁rebellion	-11077
distance	-11078
▁raising	-11079
▁rt	-11080
▁diving	-11081
▁naming	-11082
▁obtain	-11083
aram	-11084
sd	-11085
anto	-11086
▁jockey	-11087
▁promotional	-11088
▁blu	-11089
▁shed	-11090
bing	-11091
▁eclip	-11092
▁memor	-11093
▁patient	-11094
live	-11095
▁simpson	-11096
▁zur	-11097
brand	-11098
amento	-11099
▁nationalist	-11100
hoe	-11101
space	-11102
▁dictionary	-11103
rupted	-11104
▁cedar	-11105
▁remin	-11106
▁holdings	-11107
irts	-11108
▁quarterback	-11109
fre	-11110
▁(00.00	-11111
:"	-11112
▁milton	-11113
▁conclusion	-11114
abs	-11115
scale	-11116
sometimes	-11117
asp	-11118
▁rapidly	-11119
▁regime	-11120
öl	-11121
▁gele	-11122
▁leicester	-11123
▁infloresc	-11124
▁senegal	-11125
īn	-11126
▁folded	-11127
▁loch	-11128
alin	-11129
▁tiny	-11130
▁bullet	-11131
onte	-11132
▁claud	-11133
illic	-11134
▁santo	-11135
▁labels	-11136
tem	-11137
enda	-11138
▁marcel	-11139
oard	-11140
▁attraction	-11141
▁chapters	-11142
▁lectures	-11143
▁indo	-11144
▁ingred	-11145
▁tox	-11146
▁kate	-11147
municipality	-11148
▁furniture	-11149
lean	-11150
▁alumin	-11151
▁tuesday	-11152
store	-11153
▁lunar	-11154
qual	-11155
▁reviewed	-11156
▁fount	-11157
istle	-11158
▁chron	-11159
▁aus	-11160
isp	-11161
▁maple	-11162
▁publicly	-11163
āh	-11164
▁duchy	-11165
▁patch	-11166
▁intent	-11167
dim	-11168
▁brass	-11169
alon	-11170
ño	-11171
zan	-11172
▁twentieth	-11173
jun	-11174
usted	-11175
▁hyder	-11176
oche	-11177
▁sack	-11178
▁trom	-11179
▁opinion	-11180
▁coinc	-11181
ishment	-11182
▁ecclesiast	-11183
▁shakespeare	-11184
▁brewery	-11185
▁°	-11186
▁grac	-11187
▁monuments	-11188
▁stretch	-11189
▁vicinity	-11190
▁traveling	-11191
▁describing	-11192
▁hopkins	-11193
▁decides	-11194
▁nights	-11195
▁masculine	-11196
▁innovation	-11197
vereign	-11198
▁centered	-11199
▁holmes	-11200
▁wik	-11201
ruction	-11202
▁memphis	-11203
▁tables	-11204
▁czechoslovakia	-11205
atu	-11206
▁cornell	-11207
▁springfield	-11208
▁manual	-11209
▁gut	-11210
reness	-11211
▁brighton	-11212
▁militia	-11213
▁aboriginal	-11214
▁suit	-11215
▁volcano	-11216
eff	-11217
▁parade	-11218
▁rowing	-11219
▁tact	-11220
▁reper	-11221
▁ya	-11222
▁kras	-11223
▁filmmaker	-11224
▁montenegro	-11225
▁possession	-11226
▁abund	-11227
▁kok	-11228
▁separately	-11229
▁rajas	-11230
▁excess	-11231
orum	-11232
▁toll	-11233
▁notice	-11234
▁jumping	-11235
▁abbreviated	-11236
ilo	-11237
▁recreational	-11238
▁prosecut	-11239
▁reid	-11240
▁occasional	-11241
▁bard	-11242
oun	-11243
uces	-11244
▁00,000,	-11245
▁reader	-11246
cot	-11247
▁emerged	-11248
bian	-11249
▁goddess	-11250
▁tourists	-11251
isy	-11252
shore	-11253
aic	-11254
▁boot	-11255
hof	-11256
▁decline	-11257
▁ruf	-11258
▁chocol	-11259
▁monroe	-11260
▁cheshire	-11261
▁trag	-11262
öm	-11263
▁aa	-11264
▁chef	-11265
▁practical	-11266
▁documented	-11267
▁grid	-11268
▁fairly	-11269
iqu	-11270
▁duncan	-11271
fest	-11272
▁cay	-11273
▁glenn	-11274
▁guilt	-11275
▁autobi	-11276
▁inver	-11277
some	-11278
anya	-11279
nez	-11280
▁arrondissement	-11281
▁napole	-11282
▁hp	-11283
▁absorbed	-11284
▁adopt	-11285
▁enthus	-11286
▁minne	-11287
▁porter	-11288
enza	-11289
▁recruit	-11290
▁memoir	-11291
▁markings	-11292
owner	-11293
▁coins	-11294
▁pearl	-11295
lette	-11296
▁middlesex	-11297
▁flex	-11298
▁patriarch	-11299
iman	-11300
▁chiefs	-11301
▁heinrich	-11302
▁referend	-11303
▁surviv	-11304
▁ochreous	-11305
▁aleksand	-11306
▁pé	-11307
▁seeking	-11308
▁installation	-11309
ité	-11310
sworth	-11311
▁nc	-11312
▁legion	-11313
▁flowing	-11314
▁oriental	-11315
▁tons	-11316
▁viewed	-11317
esty	-11318
fu	-11319
▁conversion	-11320
▁traditions	-11321
▁00%,	-11322
▁hugo	-11323
▁essay	-11324
ipher	-11325
▁capitol	-11326
▁meanwhile	-11327
zburg	-11328
▁nicol	-11329
ych	-11330
▁andes	-11331
▁burns	-11332
▁notre	-11333
step	-11334
▁apert	-11335
▁bolog	-11336
▁stint	-11337
iza	-11338
inery	-11339
▁wesley	-11340
▁viv	-11341
grass	-11342
▁rw	-11343
▁gda	-11344
▁convicted	-11345
▁percussion	-11346
iston	-11347
▁anthe	-11348
▁simultaneously	-11349
▁tape	-11350
▁icelandic	-11351
ether	-11352
ellar	-11353
▁guid	-11354
▁),	-11355
berger	-11356
▁inland	-11357
▁approval	-11358
▁outbreak	-11359
imer	-11360
cre	-11361
usz	-11362
▁gó	-11363
bern	-11364
guit	-11365
▁hos	-11366
▁grants	-11367
▁satisf	-11368
▁caroline	-11369
ombo	-11370
▁stroke	-11371
itic	-11372
▁winger	-11373
▁burton	-11374
▁devil	-11375
▁discipl	-11376
▁debate	-11377
oney	-11378
▁sharing	-11379
▁membr	-11380
mb	-11381
yll	-11382
idian	-11383
▁pilgr	-11384
▁rbi	-11385
▁£000	-11386
center	-11387
▁andrea	-11388
▁shrine	-11389
▁electro	-11390
▁orph	-11391
forest	-11392
▁propag	-11393
▁proposal	-11394
ithe	-11395
▁ulster	-11396
omed	-11397
▁specimen	-11398
enzie	-11399
▁false	-11400
▁garner	-11401
▁moderate	-11402
dad	-11403
enov	-11404
▁gav	-11405
▁telesc	-11406
▁louisville	-11407
▁mercury	-11408
▁khal	-11409
▁expelled	-11410
▁workshops	-11411
grad	-11412
▁kurt	-11413
▁ferdinand	-11414
▁szcz	-11415
▁keeping	-11416
enson	-11417
▁verte	-11418
▁tune	-11419
▁manuscripts	-11420
hammed	-11421
▁formats	-11422
harmon	-11423
kinson	-11424
▁sheet	-11425
▁proxim	-11426
▁submer	-11427
▁ves	-11428
▁midland	-11429
▁pyramid	-11430
▁vijay	-11431
▁ned	-11432
▁ming	-11433
▁submitted	-11434
▁stern	-11435
engine	-11436
▁ernst	-11437
▁hast	-11438
▁bros	-11439
▁cumberland	-11440
▁berry	-11441
▁destruction	-11442
▁maker	-11443
▁mutual	-11444
kina	-11445
▁pag	-11446
▁jiang	-11447
▁curtis	-11448
arton	-11449
▁ivory	-11450
hell	-11451
ths	-11452
idea	-11453
gins	-11454
▁evolved	-11455
inte	-11456
▁highlands	-11457
aved	-11458
▁nass	-11459
▁bulldogs	-11460
▁ecclesiastical	-11461
mile	-11462
▁haut	-11463
▁symmet	-11464
owed	-11465
▁johan	-11466
▁tent	-11467
tw	-11468
▁kiel	-11469
▁tah	-11470
▁screened	-11471
▁neuro	-11472
daughter	-11473
▁hex	-11474
▁eb	-11475
▁lisa	-11476
▁restrict	-11477
▁conjunction	-11478
olan	-11479
▁für	-11480
adier	-11481
▁prizes	-11482
▁helps	-11483
▁reconstruction	-11484
cross	-11485
▁greatly	-11486
rea	-11487
▁mb	-11488
▁encyclop	-11489
spanish	-11490
▁colspan	-11491
▁erect	-11492
▁prolific	-11493
endo	-11494
▁explo	-11495
▁anything	-11496
iott	-11497
▁zhang	-11498
uin	-11499
▁latvian	-11500
▁criticized	-11501
jee	-11502
▁awareness	-11503
▁dwelling	-11504
▁semifinal	-11505
▁looks	-11506
▁spend	-11507
āl	-11508
acco	-11509
▁quarterly	-11510
press	-11511
▁lessons	-11512
▁justin	-11513
▁onwards	-11514
▁lund	-11515
▁assault	-11516
▁interesting	-11517
gos	-11518
▁radar	-11519
▁elm	-11520
etics	-11521
▁shan	-11522
fif	-11523
▁decide	-11524
▁sovereign	-11525
▁cere	-11526
▁hectares	-11527
▁vand	-11528
▁nk	-11529
▁vfl	-11530
▁vend	-11531
▁feather	-11532
▁carnegie	-11533
▁latitude	-11534
wid	-11535
icles	-11536
▁dad	-11537
▁nr	-11538
▁samples	-11539
▁americas	-11540
bass	-11541
▁stefan	-11542
▁worn	-11543
▁caled	-11544
▁della	-11545
▁helicopter	-11546
▁kum	-11547
▁zoo	-11548
▁rosa	-11549
▁revised	-11550
wen	-11551
▁lose	-11552
▁crawford	-11553
▁divorced	-11554
otal	-11555
▁wait	-11556
▁abdom	-11557
▁unders	-11558
▁ongoing	-11559
▁$0.0	-11560
lights	-11561
▁customs	-11562
▁amy	-11563
grave	-11564
odont	-11565
)",	-11566
▁claude	-11567
cb	-11568
▁lombard	-11569
▁depend	-11570
▁pavil	-11571
▁aquatic	-11572
▁examination	-11573
sville	-11574
▁exile	-11575
▁creator	-11576
▁bub	-11577
▁genres	-11578
▁rna	-11579
▁disaster	-11580
lp	-11581
▁sees	-11582
transfer	-11583
dz	-11584
▁missile	-11585
▁classics	-11586
▁hyderabad	-11587
▁aven	-11588
▁philanthrop	-11589
än	-11590
▁iraqi	-11591
▁cherry	-11592
▁dense	-11593
▁protocol	-11594
namese	-11595
▁robertson	-11596
▁metab	-11597
▁wish	-11598
▁ligue	-11599
mud	-11600
▁voices	-11601
▁standings	-11602
▁paler	-11603
▁weigh	-11604
ști	-11605
▁hier	-11606
alan	-11607
ová	-11608
▁package	-11609
▁stoke	-11610
▁pace	-11611
eppe	-11612
▁travelling	-11613
▁semin	-11614
▁baden	-11615
=00	-11616
▁gujarat	-11617
▁pleasant	-11618
teau	-11619
▁theorem	-11620
vide	-11621
uins	-11622
▁edgar	-11623
▁finalist	-11624
▁volcanic	-11625
▁toul	-11626
utsche	-11627
▁rivals	-11628
both	-11629
stop	-11630
▁editing	-11631
atti	-11632
rill	-11633
▁marco	-11634
▁supporters	-11635
▁dece	-11636
olar	-11637
ipei	-11638
▁bagh	-11639
▁pipe	-11640
▁redist	-11641
▁kashmir	-11642
▁sham	-11643
sg	-11644
cas	-11645
▁kannada	-11646
speed	-11647
▁salem	-11648
▁algerian	-11649
▁bedford	-11650
▁feminine	-11651
▁interpre	-11652
▁ling	-11653
▁wander	-11654
ío	-11655
▁stir	-11656
▁racer	-11657
unge	-11658
bud	-11659
▁paralympic	-11660
></	-11661
▁wyn	-11662
▁client	-11663
▁kraków	-11664
▁theoretical	-11665
▁motorway	-11666
▁mord	-11667
tier	-11668
▁circumst	-11669
▁hyd	-11670
▁covent	-11671
▁0:00.00	-11672
▁colours	-11673
▁sullivan	-11674
smouth	-11675
ández	-11676
▁sas	-11677
▁orlando	-11678
▁societies	-11679
▁guadal	-11680
▁succeeding	-11681
▁dul	-11682
▁julia	-11683
▁emerging	-11684
▁inqu	-11685
▁taste	-11686
▁brent	-11687
onna	-11688
▁minneapolis	-11689
▁unions	-11690
▁lal	-11691
ession	-11692
▁scope	-11693
▁geologic	-11694
▁jorge	-11695
▁vig	-11696
▁raja	-11697
▁knee	-11698
▁appeals	-11699
▁recommend	-11700
▁variation	-11701
▁instruction	-11702
▁explorer	-11703
fold	-11704
rank	-11705
▁blake	-11706
▁julius	-11707
▁underwent	-11708
▁pec	-11709
▁clergy	-11710
▁imprisoned	-11711
▁rayon	-11712
▁salam	-11713
anco	-11714
iste	-11715
▁buckingham	-11716
▁kolk	-11717
▁graz	-11718
intern	-11719
▁demo	-11720
▁galway	-11721
voy	-11722
ński	-11723
endra	-11724
▁marketed	-11725
▁cres	-11726
▁watts	-11727
loo	-11728
▁hook	-11729
▁broadcaster	-11730
▁fate	-11731
▁threw	-11732
▁extent	-11733
leigh	-11734
chiidae	-11735
ische	-11736
▁curriculum	-11737
▁jets	-11738
nc	-11739
playing	-11740
cules	-11741
▁bibli	-11742
▁weightlif	-11743
arin	-11744
▁balk	-11745
▁receiver	-11746
▁kut	-11747
▁submerged	-11748
▁expressway	-11749
▁gp	-11750
▁economist	-11751
▁unsuccessfully	-11752
vie	-11753
▁lug	-11754
▁patterns	-11755
nh	-11756
▁unity	-11757
▁bread	-11758
▁spectrum	-11759
▁vat	-11760
▁(0–0	-11761
▁temples	-11762
▁idol	-11763
▁strange	-11764
▁lima	-11765
▁renovation	-11766
iak	-11767
uran	-11768
▁gian	-11769
▁journalists	-11770
aceut	-11771
▁bradley	-11772
▁silesian	-11773
cam	-11774
▁flew	-11775
▁staged	-11776
missioned	-11777
▁kuwa	-11778
▁qing	-11779
▁handed	-11780
imar	-11781
▁provider	-11782
host	-11783
▁kv	-11784
▁fri	-11785
▁observation	-11786
erg	-11787
▁juven	-11788
▁manages	-11789
▁signature	-11790
▁skier	-11791
▁supervision	-11792
▁dale	-11793
▁innoc	-11794
▁mcdonald	-11795
▁kyr	-11796
▁stake	-11797
▁gelechiidae	-11798
▁reissued	-11799
▁commercials	-11800
▁arrangements	-11801
▁factors	-11802
shaw	-11803
▁cos	-11804
▁horizont	-11805
▁mamm	-11806
avy	-11807
▁lauren	-11808
vid	-11809
ledo	-11810
▁glam	-11811
tok	-11812
left	-11813
lord	-11814
▁portfolio	-11815
▁supporter	-11816
▁illustrator	-11817
brien	-11818
▁wreck	-11819
prises	-11820
▁reelection	-11821
▁implemented	-11822
▁greens	-11823
▁marian	-11824
admin	-11825
▁accommodate	-11826
▁regulation	-11827
atoes	-11828
osc	-11829
fred	-11830
▁gius	-11831
▁taipei	-11832
▁depicts	-11833
park	-11834
children	-11835
▁critically	-11836
▁plum	-11837
▁0-0.	-11838
▁edwin	-11839
▁dominant	-11840
▁measured	-11841
▁portsmouth	-11842
000,	-11843
▁identify	-11844
government	-11845
▁associates	-11846
▁mü	-11847
▁thoroughbred	-11848
▁ideal	-11849
▁itv	-11850
▁carpenter	-11851
iper	-11852
imon	-11853
rano	-11854
using	-11855
modern	-11856
▁absol	-11857
▁effectively	-11858
▁enforcement	-11859
▁sandstone	-11860
force	-11861
▁casual	-11862
▁radi	-11863
▁reverse	-11864
▁tusc	-11865
▁bearing	-11866
▁pregn	-11867
▁depicting	-11868
onda	-11869
▁hag	-11870
▁casino	-11871
ettes	-11872
▁aftern	-11873
yu	-11874
▁transmitter	-11875
▁phyl	-11876
igs	-11877
deacon	-11878
annon	-11879
▁poker	-11880
▁tunisia	-11881
▁garage	-11882
▁concord	-11883
▁kob	-11884
▁cairo	-11885
▁uncertain	-11886
athing	-11887
▁lance	-11888
▁nice	-11889
▁poison	-11890
▁grain	-11891
▁elis	-11892
▁exem	-11893
▁inception	-11894
▁drainage	-11895
▁sometime	-11896
apse	-11897
▁loud	-11898
acet	-11899
bil	-11900
atories	-11901
▁medley	-11902
▁manufacture	-11903
riers	-11904
)".	-11905
quin	-11906
amas	-11907
▁wan	-11908
▁powell	-11909
▁smallest	-11910
loss	-11911
usters	-11912
▁climbing	-11913
nick	-11914
▁fare	-11915
▁aviv	-11916
▁equity	-11917
▁scattered	-11918
▁ump	-11919
▁handic	-11920
▁disciplines	-11921
▁councils	-11922
nis	-11923
▁marginal	-11924
▁chak	-11925
▁wend	-11926
makers	-11927
▁ellen	-11928
▁linux	-11929
▁captained	-11930
▁scenic	-11931
agne	-11932
ogo	-11933
elic	-11934
▁raced	-11935
▁seventeen	-11936
▁slam	-11937
▁panchayat	-11938
▁cuis	-11939
▁fighters	-11940
"".	-11941
▁hiking	-11942
▁charleston	-11943
▁automatically	-11944
]]	-11945
owiec	-11946
▁bant	-11947
aren	-11948
▁compat	-11949
▁garc	-11950
▁jab	-11951
iu	-11952
ов	-11953
vey	-11954
▁(0.0/	-11955
▁preceding	-11956
rosse	-11957
▁consulting	-11958
saint	-11959
▁phon	-11960
alore	-11961
▁marl	-11962
▁kenny	-11963
▁optical	-11964
▁sociology	-11965
▁dere	-11966
▁execution	-11967
▁reduction	-11968
▁rhin	-11969
raw	-11970
mish	-11971
▁hardy	-11972
▁clement	-11973
▁polyn	-11974
ipper	-11975
▁garris	-11976
▁preserves	-11977
▁coordinator	-11978
iens	-11979
▁taluk	-11980
meaning	-11981
▁sick	-11982
▁ratings	-11983
▁everyone	-11984
▁girlfriend	-11985
▁£0	-11986
▁geography	-11987
▁vy	-11988
assic	-11989
▁niel	-11990
rafted	-11991
▁kerry	-11992
uvian	-11993
▁eleph	-11994
▁constitute	-11995
▁stam	-11996
▁pepper	-11997
▁hide	-11998
▁castile	-11999
▁dres	-12000
▁encouraged	-12001
▁lifestyle	-12002
-0.	-12003
▁macdonald	-12004
home	-12005
▁ibm	-12006
▁cogn	-12007
▁landed	-12008
▁gloucester	-12009
ako	-12010
ères	-12011
hausen	-12012
▁unreleased	-12013
▁syrac	-12014
▁relevant	-12015
icul	-12016
▁rafael	-12017
ück	-12018
▁borneo	-12019
▁amar	-12020
wel	-12021
historic	-12022
▁kem	-12023
acing	-12024
▁prisoner	-12025
▁pter	-12026
▁mongolia	-12027
▁auction	-12028
oline	-12029
▁crops	-12030
▁irrig	-12031
▁(0000–00).	-12032
▁carved	-12033
aceutical	-12034
ál	-12035
atsu	-12036
base	-12037
▁curved	-12038
sta	-12039
acia	-12040
▁surveys	-12041
▁celebrity	-12042
▁duk	-12043
▁analog	-12044
▁mozamb	-12045
▁tribal	-12046
▁pump	-12047
▁worst	-12048
▁muslims	-12049
▁bollywood	-12050
▁integration	-12051
▁sword	-12052
▁cbc	-12053
▁yuk	-12054
▁competitor	-12055
rug	-12056
afa	-12057
erted	-12058
shine	-12059
rising	-12060
▁nh	-12061
ller	-12062
▁err	-12063
▁dots	-12064
▁comfort	-12065
▁improvement	-12066
dor	-12067
▁chocolate	-12068
arte	-12069
▁stim	-12070
▁fergus	-12071
guitar	-12072
▁emphasis	-12073
▁compounds	-12074
iolet	-12075
ík	-12076
hit	-12077
▁kul	-12078
▁exeter	-12079
▁slender	-12080
oot	-12081
▁heter	-12082
▁cologne	-12083
plan	-12084
▁boris	-12085
▁seas	-12086
▁celebrate	-12087
▁--	-12088
▁eventual	-12089
▁corrid	-12090
▁blow	-12091
ibilities	-12092
▁giuseppe	-12093
▁syracuse	-12094
▁chronicle	-12095
fjord	-12096
▁narrative	-12097
▁jointly	-12098
ków	-12099
▁porto	-12100
▁essentially	-12101
every	-12102
▁apostolic	-12103
▁lankan	-12104
▁barnes	-12105
sv	-12106
hans	-12107
eve	-12108
▁fars	-12109
▁sufficient	-12110
esi	-12111
uala	-12112
▁peas	-12113
▁capped	-12114
neg	-12115
emberg	-12116
▁perspective	-12117
▁lisbon	-12118
▁waiting	-12119
▁marina	-12120
▁sentence	-12121
▁healthcare	-12122
▁chaplain	-12123
▁eis	-12124
wana	-12125
▁laur	-12126
▁providence	-12127
champ	-12128
▁sacramento	-12129
rets	-12130
▁baltic	-12131
▁sponsor	-12132
▁ari	-12133
▁gloucestershire	-12134
sam	-12135
alling	-12136
▁preceded	-12137
▁"0000	-12138
austral	-12139
”,	-12140
irk	-12141
igar	-12142
aje	-12143
▁advertis	-12144
▁recurring	-12145
▁adolf	-12146
00"	-12147
▁viii	-12148
▁lineup	-12149
▁toledo	-12150
meh	-12151
▁pseudonym	-12152
▁cuts	-12153
▁lia	-12154
usks	-12155
▁0000".	-12156
▁supers	-12157
▁controls	-12158
▁wasn	-12159
-00)	-12160
inh	-12161
▁sailor	-12162
roller	-12163
ça	-12164
video	-12165
▁catalogue	-12166
europ	-12167
▁hert	-12168
fortun	-12169
ener	-12170
itudes	-12171
▁complement	-12172
around	-12173
▁vietnamese	-12174
iane	-12175
▁chaired	-12176
▁griffith	-12177
▁infer	-12178
▁antwer	-12179
iley	-12180
▁tackle	-12181
▁solic	-12182
▁scandin	-12183
00).	-12184
▁ghar	-12185
▁atmosphere	-12186
▁dhar	-12187
▁britt	-12188
▁kand	-12189
hara	-12190
▁mapped	-12191
▁balance	-12192
offs	-12193
flower	-12194
▁referendum	-12195
▁madras	-12196
▁suspension	-12197
▁navigation	-12198
mology	-12199
alls	-12200
esque	-12201
rens	-12202
▁rajasthan	-12203
▁permit	-12204
▁bacteria	-12205
▁swimmers	-12206
▁unanim	-12207
garten	-12208
ré	-12209
eer	-12210
▁qatar	-12211
▁zambia	-12212
▁yacht	-12213
▁registration	-12214
kol	-12215
▁pamp	-12216
aked	-12217
▁fusion	-12218
▁krishna	-12219
▁exploration	-12220
rish	-12221
▁pointed	-12222
▁claiming	-12223
▁foods	-12224
▁quiet	-12225
rogen	-12226
▁slope	-12227
▁mechanism	-12228
▁clara	-12229
ambon	-12230
▁chelsea	-12231
▁crest	-12232
▁circus	-12233
▁corruption	-12234
ledon	-12235
▁rehabil	-12236
▁sta	-12237
▁reynolds	-12238
▁berkshire	-12239
zys	-12240
▁cannes	-12241
▁desire	-12242
ifies	-12243
▁exactly	-12244
idays	-12245
▁lumber	-12246
ronym	-12247
▁polytechnic	-12248
▁venezuelan	-12249
aru	-12250
▁pursuit	-12251
america	-12252
itarian	-12253
▁bangalore	-12254
etes	-12255
▁marshal	-12256
ulating	-12257
brit	-12258
▁luk	-12259
wrote	-12260
▁chah	-12261
▁modest	-12262
▁hey	-12263
▁hawks	-12264
jana	-12265
flies	-12266
▁anto	-12267
▁bourg	-12268
enders	-12269
▁blast	-12270
▁thomson	-12271
▁assum	-12272
▁sings	-12273
aye	-12274
▁alberto	-12275
▁contributor	-12276
auth	-12277
mere	-12278
▁mikh	-12279
▁johns	-12280
▁meyrick	-12281
▁sebastian	-12282
▁lightweight	-12283
ierz	-12284
▁roberto	-12285
aeus	-12286
▁genetic	-12287
▁geometry	-12288
quez	-12289
▁counterpart	-12290
elage	-12291
rint	-12292
▁renewed	-12293
▁customer	-12294
▁acad	-12295
▁robot	-12296
ensional	-12297
▁commiss	-12298
▁impressive	-12299
▁drawings	-12300
▁cooking	-12301
▁lebanese	-12302
▁depicted	-12303
gren	-12304
▁codex	-12305
mph	-12306
▁melody	-12307
▁aboard	-12308
▁barrel	-12309
▁bologna	-12310
▁honduras	-12311
▁lighting	-12312
▁landscapes	-12313
reh	-12314
▁exhibit	-12315
▁airports	-12316
▁deposits	-12317
▁citizenship	-12318
▁ballad	-12319
fried	-12320
▁para	-12321
▁appropriate	-12322
kers	-12323
▁softball	-12324
vić	-12325
ivated	-12326
▁forth	-12327
▁understand	-12328
▁dorset	-12329
▁lacrosse	-12330
▁isab	-12331
▁illustrations	-12332
oder	-12333
▁basement	-12334
▁desk	-12335
▁philosoph	-12336
velt	-12337
▁enrollment	-12338
▁eclipse	-12339
▁coch	-12340
▁stig	-12341
vill	-12342
▁kau	-12343
▁dairy	-12344
arel	-12345
▁stationed	-12346
ordinary	-12347
▁permission	-12348
aea	-12349
▁liu	-12350
▁redes	-12351
▁creates	-12352
▁presentation	-12353
▁germans	-12354
japan	-12355
▁reception	-12356
lv	-12357
▁suite	-12358
▁accounting	-12359
bria	-12360
conn	-12361
▁bike	-12362
▁empty	-12363
▁humb	-12364
▁bengali	-12365
▁hayes	-12366
▁cutting	-12367
▁hampton	-12368
▁archdeacon	-12369
▁sara	-12370
▁elliott	-12371
▁trouble	-12372
ulla	-12373
▁reopened	-12374
▁kiev	-12375
▁clearly	-12376
▁tuc	-12377
ochem	-12378
▁moldova	-12379
hole	-12380
pid	-12381
wned	-12382
▁eve	-12383
▁bust	-12384
▁nou	-12385
▁hiro	-12386
continent	-12387
ación	-12388
▁aside	-12389
tu	-12390
▁bibl	-12391
▁principle	-12392
▁dayton	-12393
▁0,000,000	-12394
▁whorls	-12395
cm	-12396
▁macc	-12397
▁acclaim	-12398
sons	-12399
▁recovery	-12400
antes	-12401
▁nautical	-12402
▁casc	-12403
▁vital	-12404
▁decoration	-12405
▁saxophonist	-12406
aek	-12407
▁sure	-12408
▁raiders	-12409
oj	-12410
▁bluff	-12411
▁freel	-12412
▁soils	-12413
▁normandy	-12414
▁tac	-12415
aton	-12416
▁spiral	-12417
▁hoff	-12418
▁fjord	-12419
▁discussion	-12420
▁cottage	-12421
▁sculptures	-12422
oces	-12423
▁contestants	-12424
▁peruvian	-12425
▁veins	-12426
▁pride	-12427
▁actively	-12428
▁boarding	-12429
▁boom	-12430
eonato	-12431
▁miche	-12432
▁sergeant	-12433
▁comprised	-12434
ieri	-12435
▁input	-12436
▁thames	-12437
▁carlton	-12438
▁matrix	-12439
▁haute	-12440
▁evangelical	-12441
cod	-12442
▁counts	-12443
▁prompt	-12444
▁arriving	-12445
▁sustainable	-12446
dep	-12447
▁chop	-12448
author	-12449
agogue	-12450
▁reward	-12451
▁wearing	-12452
▁triangular	-12453
seven	-12454
▁trim	-12455
▁harper	-12456
emi	-12457
▁norwich	-12458
▁chicken	-12459
tering	-12460
▁verde	-12461
▁exercise	-12462
▁painters	-12463
▁developers	-12464
▁skater	-12465
▁investors	-12466
▁occurring	-12467
oning	-12468
▁astronomer	-12469
▁apply	-12470
▁prayer	-12471
▁incomplete	-12472
▁oxygen	-12473
▁georges	-12474
▁kolkata	-12475
▁tributaries	-12476
▁deaths	-12477
▁alexandria	-12478
▁bally	-12479
▁therapy	-12480
▁skull	-12481
▁beaten	-12482
▁employee	-12483
▁porn	-12484
▁garcía	-12485
▁mural	-12486
▁heroes	-12487
▁originates	-12488
▁logic	-12489
mitt	-12490
jos	-12491
▁arche	-12492
stat	-12493
▁rings	-12494
▁resol	-12495
▁0000–0000)	-12496
▁logan	-12497
▁cups	-12498
▁mohammed	-12499
▁lift	-12500
zcz	-12501
▁yemen	-12502
▁upgraded	-12503
▁palestinian	-12504
▁propriet	-12505
▁delegation	-12506
▁discal	-12507
rams	-12508
running	-12509
▁chip	-12510
▁bates	-12511
▁karachi	-12512
▁wrap	-12513
▁difficulties	-12514
▁guit	-12515
▁gov	-12516
phal	-12517
▁quit	-12518
▁pools	-12519
▁morrison	-12520
hero	-12521
▁karen	-12522
▁benefits	-12523
fields	-12524
▁feeds	-12525
oise	-12526
▁clyde	-12527
▁killer	-12528
cir	-12529
▁playstation	-12530
▁cone	-12531
▁sicily	-12532
▁christians	-12533
▁argued	-12534
▁intention	-12535
▁eponymous	-12536
▁jennifer	-12537
ods	-12538
øy	-12539
▁antwerp	-12540
▁bruno	-12541
▁mund	-12542
▁sofl	-12543
▁presently	-12544
▁pharmaceutical	-12545
▁futsal	-12546
county	-12547
▁cheng	-12548
▁terrain	-12549
▁adjo	-12550
young	-12551
▁hearts	-12552
▁load	-12553
▁mash	-12554
▁dubbed	-12555
▁acknow	-12556
▁muscle	-12557
▁organist	-12558
▁vander	-12559
▁brat	-12560
▁sok	-12561
ecraft	-12562
▁commercially	-12563
fb	-12564
▁tyler	-12565
▁linda	-12566
▁00:00.	-12567
▁tobacco	-12568
▁numbering	-12569
ateral	-12570
▁maiden	-12571
▁nico	-12572
▁unic	-12573
ede	-12574
▁nurse	-12575
administr	-12576
▁prominence	-12577
▁nes	-12578
▁stops	-12579
theless	-12580
▁remake	-12581
▁apartments	-12582
▁panthers	-12583
ifolia	-12584
▁booth	-12585
▁dealing	-12586
ège	-12587
▁gott	-12588
mov	-12589
▁leather	-12590
▁handle	-12591
terdam	-12592
▁unfortun	-12593
▁humanities	-12594
▁increasingly	-12595
▁rates	-12596
▁ultimate	-12597
ône	-12598
omat	-12599
▁andreas	-12600
▁ucla	-12601
▁hi	-12602
▁mollusc	-12603
zon	-12604
▁discography	-12605
▁plates	-12606
▁deputies	-12607
▁macedonian	-12608
▁-00	-12609
▁agu	-12610
chinese	-12611
erland	-12612
▁funk	-12613
▁dundee	-12614
▁mature	-12615
▁bihar	-12616
thor	-12617
▁kidn	-12618
sov	-12619
text	-12620
▁yak	-12621
▁spokes	-12622
▁proof	-12623
established	-12624
chus	-12625
▁comparison	-12626
oping	-12627
▁provis	-12628
▁walsh	-12629
▁mim	-12630
▁dz	-12631
▁ech	-12632
▁laf	-12633
▁dwarf	-12634
▁twins	-12635
▁bypass	-12636
▁finger	-12637
▁enlarged	-12638
▁nah	-12639
▁rapids	-12640
uen	-12641
▁skill	-12642
▁cambodia	-12643
▁sprinter	-12644
▁triangle	-12645
▁nevertheless	-12646
okes	-12647
▁dynamo	-12648
▁theodore	-12649
▁enterprises	-12650
▁philharmon	-12651
atum	-12652
▁subway	-12653
▁catalonia	-12654
▁notor	-12655
▁circumstances	-12656
▁mhz	-12657
▁troy	-12658
▁anyone	-12659
▁slave	-12660
▁dash	-12661
ombe	-12662
▁mirror	-12663
▁surfaces	-12664
▁kav	-12665
▁monter	-12666
▁decorative	-12667
dev	-12668
▁longtime	-12669
▁integ	-12670
▁beside	-12671
idd	-12672
▁guidance	-12673
▁innovative	-12674
grow	-12675
stars	-12676
▁marx	-12677
▁pursued	-12678
stage	-12679
anskrit	-12680
colm	-12681
utta	-12682
▁dozen	-12683
▁varied	-12684
▁belarusian	-12685
xual	-12686
▁00.000	-12687
▁ein	-12688
▁pes	-12689
getown	-12690
▁gdańsk	-12691
▁silk	-12692
▁publish	-12693
▁beau	-12694
▁fountain	-12695
▁favourite	-12696
▁pam	-12697
▁lenn	-12698
▁culmin	-12699
▁aquatics	-12700
▁hairy	-12701
▁vernon	-12702
vex	-12703
▁rog	-12704
▁hipp	-12705
▁punt	-12706
▁calder	-12707
▁stress	-12708
▁colored	-12709
▁scandal	-12710
▁costal	-12711
▁emirates	-12712
▁spectators	-12713
▁partnered	-12714
▁constantin	-12715
aris	-12716
▁zones	-12717
▁campeonato	-12718
▁nm	-12719
▁assessment	-12720
▁khuz	-12721
▁quantum	-12722
▁rs	-12723
▁knox	-12724
▁kak	-12725
▁siblings	-12726
stud	-12727
▁chil	-12728
▁sevens	-12729
▁spoke	-12730
▁guilty	-12731
▁compens	-12732
▁immigration	-12733
▁greene	-12734
▁hydrogen	-12735
▁undrafted	-12736
▁trout	-12737
▁preferred	-12738
▁ley	-12739
īr	-12740
▁vein	-12741
▁lynch	-12742
▁fallen	-12743
▁dialogue	-12744
elyn	-12745
▁thread	-12746
▁experts	-12747
▁hearing	-12748
enses	-12749
▁entity	-12750
opus	-12751
icity	-12752
▁bones	-12753
▁bangkok	-12754
▁occupies	-12755
▁permanently	-12756
▁lincolnshire	-12757
▁wimb	-12758
▁johnston	-12759
ulia	-12760
▁tissue	-12761
▁southampton	-12762
▁accomplished	-12763
▁lawn	-12764
▁valencia	-12765
▁watershed	-12766
bard	-12767
▁bred	-12768
gans	-12769
▁hok	-12770
raj	-12771
▁airplay	-12772
▁urg	-12773
▁colonies	-12774
▁seating	-12775
▁drinking	-12776
▁baj	-12777
▁depths	-12778
▁baronetcy	-12779
▁gos	-12780
▁kosovo	-12781
▁riverside	-12782
onde	-12783
▁pray	-12784
▁ou	-12785
▁cuisine	-12786
mans	-12787
▁guru	-12788
▁accessed	-12789
leum	-12790
▁decree	-12791
bery	-12792
▁stutt	-12793
abo	-12794
▁koh	-12795
▁opens	-12796
kö	-12797
▁rejo	-12798
▁crimes	-12799
▁jacksonville	-12800
ilus	-12801
▁treasury	-12802
▁fulf	-12803
ád	-12804
▁rak	-12805
▁grim	-12806
▁tested	-12807
osing	-12808
▁dorothy	-12809
vest	-12810
▁biblical	-12811
00)	-12812
▁cannon	-12813
card	-12814
rina	-12815
ła	-12816
iety	-12817
▁jel	-12818
▁temporarily	-12819
▁bye	-12820
ocks	-12821
▁convinc	-12822
cult	-12823
▁betty	-12824
▁cis	-12825
▁za	-12826
▁arsenal	-12827
abl	-12828
rella	-12829
▁draws	-12830
▁dü	-12831
▁spans	-12832
▁starter	-12833
▁withdrawn	-12834
▁mozambique	-12835
adan	-12836
avo	-12837
▁dawn	-12838
▁vault	-12839
pot	-12840
▁albion	-12841
▁elabor	-12842
▁winchester	-12843
amm	-12844
raf	-12845
asis	-12846
▁weekday	-12847
▁doctors	-12848
tail	-12849
fight	-12850
asian	-12851
▁artif	-12852
▁espn	-12853
▁sailed	-12854
▁strings	-12855
▁rican	-12856
▁joel	-12857
▁debt	-12858
number	-12859
▁trilogy	-12860
▁potter	-12861
▁birthplace	-12862
▁accurate	-12863
▁christianity	-12864
▁sd	-12865
▁vä	-12866
▁nsw	-12867
▁brings	-12868
▁utility	-12869
▁cohen	-12870
▁physicist	-12871
▁xx	-12872
▁aless	-12873
▁objective	-12874
▁emma	-12875
▁stap	-12876
▁jamie	-12877
▁modeling	-12878
hom	-12879
▁feeding	-12880
▁invitation	-12881
▁assam	-12882
▁victim	-12883
recorded	-12884
▁summers	-12885
▁conquest	-12886
▁nicar	-12887
ophyllum	-12888
▁forestry	-12889
▁cooperative	-12890
▁incorporates	-12891
▁bres	-12892
athered	-12893
▁deemed	-12894
oso	-12895
▁bucharest	-12896
emin	-12897
▁stamps	-12898
▁bé	-12899
▁pavilion	-12900
▁seeing	-12901
▁coin	-12902
▁oral	-12903
▁resided	-12904
▁synthesis	-12905
▁roose	-12906
arked	-12907
▁arcade	-12908
▁developments	-12909
tyn	-12910
▁nave	-12911
▁legends	-12912
▁spy	-12913
▁rost	-12914
ologically	-12915
series	-12916
▁temperatures	-12917
afl	-12918
yam	-12919
color	-12920
erver	-12921
▁procedure	-12922
▁wimbledon	-12923
▁fundamental	-12924
pas	-12925
▁rotterdam	-12926
▁bury	-12927
▁insect	-12928
▁duet	-12929
holders	-12930
▁subgen	-12931
▁fis	-12932
▁skate	-12933
▁mechanics	-12934
oco	-12935
▁faso	-12936
▁mole	-12937
▁salmon	-12938
opa	-12939
▁glad	-12940
▁employs	-12941
acu	-12942
▁oblig	-12943
▁hermann	-12944
▁listings	-12945
▁delegates	-12946
▁operators	-12947
resh	-12948
▁burkina	-12949
idan	-12950
▁tl	-12951
▁ces	-12952
hart	-12953
combe	-12954
▁magdal	-12955
▁licence	-12956
uns	-12957
▁shim	-12958
▁monkey	-12959
▁tradem	-12960
▁mā	-12961
▁holes	-12962
▁reads	-12963
▁willie	-12964
anan	-12965
▁loos	-12966
▁abuse	-12967
▁firms	-12968
▁malt	-12969
▁handled	-12970
▁helm	-12971
▁mollusks	-12972
▁disappeared	-12973
ollo	-12974
▁vacant	-12975
▁axis	-12976
▁vor	-12977
▁tian	-12978
aring	-12979
▁caves	-12980
▁unified	-12981
▁charitable	-12982
▁samoa	-12983
▁roland	-12984
▁neutral	-12985
▁doctoral	-12986
amous	-12987
▁00–00.	-12988
vy	-12989
▁remixes	-12990
irt	-12991
ulin	-12992
▁ritual	-12993
ttemberg	-12994
▁accum	-12995
▁mush	-12996
icking	-12997
▁wireless	-12998
▁conducting	-12999
along	-13000
▁mell	-13001
eti	-13002
pent	-13003
▁narrowly	-13004
▁oc	-13005
▁criteria	-13006
▁ا	-13007
▁emin	-13008
▁nickel	-13009
▁château	-13010
iatus	-13011
▁quarry	-13012
▁carriage	-13013
▁suddenly	-13014
coe	-13015
▁saved	-13016
atro	-13017
▁collecting	-13018
▁rol	-13019
▁ich	-13020
▁cylind	-13021
▁ostr	-13022
branch	-13023
▁natal	-13024
▁frontier	-13025
rics	-13026
ylan	-13027
▁guitars	-13028
▁curator	-13029
▁dollars	-13030
▁emily	-13031
amic	-13032
erie	-13033
roman	-13034
▁keen	-13035
▁clinic	-13036
▁martha	-13037
cyl	-13038
amon	-13039
linary	-13040
▁coleman	-13041
▁"000	-13042
▁alto	-13043
▁richards	-13044
▁hurricane	-13045
▁interpretation	-13046
▁hern	-13047
▁collaps	-13048
▁loose	-13049
film	-13050
odor	-13051
▁ask	-13052
▁000–000	-13053
▁deutsche	-13054
olith	-13055
cliffe	-13056
▁ports	-13057
▁fitzg	-13058
▁fles	-13059
▁deployed	-13060
ürttemberg	-13061
▁kinder	-13062
▁jub	-13063
aders	-13064
acha	-13065
▁cey	-13066
▁khuzestan	-13067
▁expensive	-13068
▁historians	-13069
▁dn	-13070
urai	-13071
▁00:	-13072
avery	-13073
▁bills	-13074
▁slot	-13075
▁humor	-13076
▁archaeology	-13077
iso	-13078
arat	-13079
▁legacy	-13080
▁coventry	-13081
▁pulmon	-13082
uer	-13083
mith	-13084
▁countryside	-13085
lake	-13086
▁magistr	-13087
▁oblique	-13088
▁burning	-13089
▁midlands	-13090
▁endors	-13091
eing	-13092
kett	-13093
▁greenland	-13094
flo	-13095
▁beaver	-13096
▁inch	-13097
estock	-13098
▁brill	-13099
▁phenomen	-13100
elo	-13101
▁hurdles	-13102
▁translations	-13103
▁pablo	-13104
▁staffordshire	-13105
▁auburn	-13106
▁familiar	-13107
▁conservatives	-13108
atz	-13109
▁alg	-13110
▁amounts	-13111
▁bankruptcy	-13112
')	-13113
▁frost	-13114
▁indicating	-13115
▁seventy	-13116
▁wagner	-13117
▁rebel	-13118
▁shift	-13119
▁ballot	-13120
thel	-13121
▁pulled	-13122
ono	-13123
▁usl	-13124
▁bour	-13125
▁dolph	-13126
▁dug	-13127
ortion	-13128
emann	-13129
▁smok	-13130
▁dresden	-13131
▁garrison	-13132
loaded	-13133
▁peerage	-13134
▁buk	-13135
▁challenges	-13136
wat	-13137
news	-13138
▁requested	-13139
▁descendant	-13140
▁roosevelt	-13141
midt	-13142
▁vern	-13143
▁layout	-13144
▁fitness	-13145
lew	-13146
▁cret	-13147
▁contents	-13148
plant	-13149
▁wart	-13150
awar	-13151
▁mysterious	-13152
▁stag	-13153
arc	-13154
▁expect	-13155
plane	-13156
▁suffr	-13157
▁beds	-13158
▁wolver	-13159
▁prosper	-13160
▁clap	-13161
▁wilts	-13162
▁fuller	-13163
▁wheels	-13164
▁disk	-13165
▁hartford	-13166
hig	-13167
▁keys	-13168
▁error	-13169
▁duc	-13170
lore	-13171
▁fry	-13172
▁chit	-13173
▁burke	-13174
▁inlet	-13175
▁extant	-13176
▁prehistoric	-13177
▁pras	-13178
▁gaming	-13179
▁violent	-13180
▁ecc	-13181
▁meadows	-13182
▁proceed	-13183
das	-13184
▁fuj	-13185
▁kod	-13186
▁magnetic	-13187
backs	-13188
▁mascot	-13189
▁szczec	-13190
▁categor	-13191
▁brock	-13192
▁proximity	-13193
▁certification	-13194
horse	-13195
▁pharmac	-13196
pier	-13197
▁shots	-13198
▁lein	-13199
educational	-13200
▁thereby	-13201
▁swamp	-13202
▁collier	-13203
mix	-13204
▁stade	-13205
sin	-13206
▁amendment	-13207
▁[[	-13208
iche	-13209
ilee	-13210
▁wiz	-13211
▁(0000);	-13212
▁claus	-13213
▁flagship	-13214
international	-13215
▁mali	-13216
▁tran	-13217
word	-13218
▁builder	-13219
▁hanover	-13220
▁fluid	-13221
▁integral	-13222
sund	-13223
▁lucy	-13224
▁shri	-13225
▁oss	-13226
▁cran	-13227
▁stolen	-13228
▁guyana	-13229
oriented	-13230
▁resembles	-13231
united	-13232
▁shepher	-13233
▁pp	-13234
ankar	-13235
anned	-13236
▁troubl	-13237
▁petroleum	-13238
▁politicians	-13239
hak	-13240
otypic	-13241
lé	-13242
▁luxury	-13243
▁chartered	-13244
▁trap	-13245
▁transformed	-13246
party	-13247
▁gonzá	-13248
▁slowly	-13249
▁pend	-13250
▁telegraph	-13251
▁orchestr	-13252
gee	-13253
chem	-13254
aints	-13255
▁crack	-13256
▁stuttgart	-13257
natural	-13258
▁backed	-13259
▁panels	-13260
▁aria	-13261
▁disturb	-13262
▁denied	-13263
▁easter	-13264
▁explained	-13265
▁paradise	-13266
ellers	-13267
▁visits	-13268
isons	-13269
umen	-13270
ström	-13271
▁nasa	-13272
▁rebo	-13273
▁jewel	-13274
▁nascar	-13275
grove	-13276
▁pue	-13277
▁doming	-13278
▁laugh	-13279
▁foundations	-13280
wheel	-13281
▁sink	-13282
▁reinfor	-13283
itas	-13284
▁pilots	-13285
▁cultivated	-13286
tod	-13287
▁grassland	-13288
odrome	-13289
▁denis	-13290
illi	-13291
▁saga	-13292
▁enclosed	-13293
thood	-13294
rocław	-13295
▁escaped	-13296
kr	-13297
▁clube	-13298
▁afford	-13299
▁remove	-13300
▁synchron	-13301
▁lv	-13302
arina	-13303
▁webb	-13304
▁abbot	-13305
omal	-13306
arya	-13307
ulam	-13308
ometer	-13309
enger	-13310
▁nil	-13311
▁meadow	-13312
ubi	-13313
tland	-13314
▁fragment	-13315
▁escort	-13316
▁regency	-13317
▁knew	-13318
▁presidents	-13319
>*	-13320
hm	-13321
▁haiti	-13322
yers	-13323
▁orphan	-13324
ijk	-13325
▁brigadier	-13326
▁fract	-13327
▁paramount	-13328
▁warwickshire	-13329
▁norton	-13330
gyz	-13331
happ	-13332
▁malcolm	-13333
ysc	-13334
▁practition	-13335
▁kah	-13336
▁options	-13337
▁kend	-13338
▁unesco	-13339
▁button	-13340
▁astronomy	-13341
▁morton	-13342
▁gonzález	-13343
▁gad	-13344
▁zak	-13345
achment	-13346
▁dissolution	-13347
▁portal	-13348
▁grape	-13349
▁exposure	-13350
sol	-13351
▁careers	-13352
university	-13353
▁"'	-13354
eroy	-13355
▁fresco	-13356
▁discipline	-13357
▁jeremy	-13358
▁altered	-13359
▁astronomical	-13360
▁euc	-13361
▁revenge	-13362
ections	-13363
▁successive	-13364
▁transverse	-13365
eco	-13366
▁tackles	-13367
ritic	-13368
▁vamp	-13369
▁separation	-13370
▁basel	-13371
▁premises	-13372
▁nose	-13373
▁bombing	-13374
ariat	-13375
▁praise	-13376
▁adviser	-13377
▁galleries	-13378
▁hak	-13379
▁dorsum	-13380
▁patricia	-13381
▁lough	-13382
▁siber	-13383
▁mikhail	-13384
azzo	-13385
▁ner	-13386
▁vie	-13387
▁caes	-13388
▁bash	-13389
▁protagonist	-13390
▁curve	-13391
▁handling	-13392
edo	-13393
union	-13394
▁ammon	-13395
▁inventor	-13396
inde	-13397
▁pud	-13398
▁targets	-13399
▁rubber	-13400
▁corridor	-13401
▁dying	-13402
▁oman	-13403
▁slug	-13404
▁ix	-13405
▁wta	-13406
due	-13407
ilis	-13408
rique	-13409
▁chuck	-13410
▁bolton	-13411
▁distant	-13412
rently	-13413
▁trace	-13414
▁felix	-13415
▁arctiidae	-13416
letter	-13417
▁beaches	-13418
▁cecil	-13419
▁osaka	-13420
▁sutton	-13421
▁reserved	-13422
▁improvements	-13423
▁array	-13424
▁banker	-13425
▁revived	-13426
▁depress	-13427
▁huss	-13428
▁voyage	-13429
▁cyn	-13430
hills	-13431
hampton	-13432
▁monster	-13433
▁shoulder	-13434
▁afternoon	-13435
▁nicolas	-13436
▁participates	-13437
▁leopold	-13438
iour	-13439
mits	-13440
▁madhya	-13441
▁decisions	-13442
▁authorized	-13443
utz	-13444
▁julie	-13445
▁alexandra	-13446
▁facebook	-13447
▁mixt	-13448
▁vars	-13449
▁retain	-13450
▁rudolf	-13451
▁furthermore	-13452
▁relatives	-13453
pez	-13454
missions	-13455
▁icon	-13456
▁disappo	-13457
▁fencer	-13458
▁unexp	-13459
▁massacre	-13460
▁alien	-13461
▁attacking	-13462
aming	-13463
orian	-13464
▁livestock	-13465
ís	-13466
▁sf	-13467
emia	-13468
▁copyr	-13469
▁alma	-13470
▁stair	-13471
▁absent	-13472
▁diversity	-13473
▁cypriot	-13474
▁permitted	-13475
▁puzz	-13476
houses	-13477
▁laser	-13478
purpose	-13479
▁malawi	-13480
ruz	-13481
▁indeed	-13482
▁differs	-13483
▁transf	-13484
▁harvest	-13485
russian	-13486
▁governors	-13487
tum	-13488
▁posthumously	-13489
▁epithet	-13490
▁sto	-13491
▁teammate	-13492
▁textile	-13493
andan	-13494
▁minimal	-13495
▁contracts	-13496
▁consequently	-13497
iron	-13498
▁paz	-13499
▁swift	-13500
ogether	-13501
▁urb	-13502
ocy	-13503
▁mask	-13504
▁École	-13505
▁qué	-13506
adays	-13507
▁metabol	-13508
avid	-13509
reats	-13510
▁trium	-13511
▁hin	-13512
iani	-13513
▁navar	-13514
▁dict	-13515
▁overl	-13516
utch	-13517
nfl	-13518
▁luz	-13519
▁chimney	-13520
published	-13521
▁efficient	-13522
▁taiwanese	-13523
▁oy	-13524
▁davidson	-13525
jani	-13526
▁reviewer	-13527
▁trent	-13528
▁northumberland	-13529
▁woody	-13530
▁shak	-13531
ancement	-13532
▁dwellings	-13533
▁martyr	-13534
▁joshua	-13535
▁philippe	-13536
▁sik	-13537
▁remn	-13538
▁browns	-13539
▁membrane	-13540
▁wiltshire	-13541
▁consolidated	-13542
fair	-13543
bey	-13544
▁finest	-13545
elin	-13546
▁0",	-13547
emies	-13548
immer	-13549
▁raion	-13550
▁rachel	-13551
▁ie	-13552
iveness	-13553
▁kyrgyz	-13554
▁dynamic	-13555
comp	-13556
▁overlooking	-13557
▁cornel	-13558
▁mandate	-13559
phosph	-13560
▁placement	-13561
éné	-13562
▁anthem	-13563
▁barber	-13564
▁chapman	-13565
▁countess	-13566
▁privat	-13567
▁tobago	-13568
▁mog	-13569
▁kara	-13570
▁nerv	-13571
▁rainbow	-13572
▁webster	-13573
rahim	-13574
landers	-13575
echua	-13576
▁pistol	-13577
▁hawthorn	-13578
▁pronounced	-13579
abar	-13580
▁reds	-13581
unal	-13582
waters	-13583
▁reich	-13584
▁discussed	-13585
erts	-13586
▁annie	-13587
▁omaha	-13588
▁observer	-13589
chez	-13590
▁traces	-13591
▁meyer	-13592
lio	-13593
▁synagogue	-13594
▁shi	-13595
▁mapping	-13596
▁georgetown	-13597
metre	-13598
pacific	-13599
stant	-13600
▁auditorium	-13601
▁vod	-13602
▁dams	-13603
utan	-13604
▁wanderers	-13605
fal	-13606
▁chu	-13607
▁leigh	-13608
▁ding	-13609
▁moral	-13610
▁augustus	-13611
▁audiences	-13612
--	-13613
▁josef	-13614
▁cultures	-13615
▁avo	-13616
▁chronicles	-13617
▁pike	-13618
▁taxi	-13619
▁castro	-13620
▁succeed	-13621
▁gorge	-13622
▁paved	-13623
▁attractions	-13624
▁tad	-13625
▁stored	-13626
puted	-13627
▁petals	-13628
▁rainforest	-13629
▁dá	-13630
▁extraordinary	-13631
"(	-13632
bos	-13633
math	-13634
▁tenor	-13635
rev	-13636
▁fault	-13637
isbury	-13638
▁annexed	-13639
▁feeling	-13640
ennium	-13641
▁paran	-13642
▁topic	-13643
▁concepts	-13644
▁ahl	-13645
▁websites	-13646
▁atlas	-13647
dig	-13648
acio	-13649
code	-13650
women	-13651
▁witch	-13652
▁gabon	-13653
▁shores	-13654
▁kuwait	-13655
▁plas	-13656
enidae	-13657
▁bombay	-13658
▁inflorescence	-13659
▁rfc	-13660
▁rebels	-13661
▁fitzgerald	-13662
▁hank	-13663
ophone	-13664
▁uprising	-13665
osy	-13666
▁niz	-13667
▁downs	-13668
▁sheikh	-13669
iry	-13670
lined	-13671
skaya	-13672
▁specialty	-13673
nagar	-13674
islav	-13675
▁podl	-13676
▁rath	-13677
▁sidney	-13678
lag	-13679
▁trips	-13680
iaceae	-13681
▁interaction	-13682
▁admission	-13683
maj	-13684
oan	-13685
▁iaaf	-13686
pus	-13687
agram	-13688
▁disorder	-13689
jud	-13690
▁managers	-13691
oves	-13692
▁dioces	-13693
▁multim	-13694
▁tud	-13695
▁jesse	-13696
▁loved	-13697
▁monop	-13698
▁residences	-13699
▁monks	-13700
▁shifted	-13701
▁talks	-13702
▁sanskrit	-13703
▁augusta	-13704
cio	-13705
itud	-13706
yeong	-13707
administrative	-13708
▁leinster	-13709
▁greyish	-13710
hwa	-13711
▁kop	-13712
▁ain	-13713
worthy	-13714
▁danger	-13715
▁thinking	-13716
▁genes	-13717
auc	-13718
▁avg	-13719
ormal	-13720
umps	-13721
▁sno	-13722
▁pemb	-13723
awan	-13724
garh	-13725
▁shells	-13726
▁divorce	-13727
▁concentrated	-13728
▁locals	-13729
kk	-13730
▁gravel	-13731
▁peripher	-13732
kre	-13733
▁jol	-13734
▁lahore	-13735
▁horizontal	-13736
ibald	-13737
▁grab	-13738
▁martins	-13739
gia	-13740
▁solely	-13741
▁vibr	-13742
▁bosnian	-13743
▁prices	-13744
▁000,000.	-13745
▁mentions	-13746
viously	-13747
▁analyst	-13748
▁fungus	-13749
▁newman	-13750
eric	-13751
archy	-13752
dia	-13753
▁koz	-13754
▁glory	-13755
▁inclusion	-13756
▁nationals	-13757
▁ingredients	-13758
▁spotted	-13759
▁commentator	-13760
▁philharmonic	-13761
atan	-13762
▁walt	-13763
▁immun	-13764
▁varsity	-13765
▁yuan	-13766
▁submarines	-13767
ūr	-13768
▁kart	-13769
eyer	-13770
▁echo	-13771
▁rower	-13772
mington	-13773
▁hastings	-13774
oki	-13775
▁fraud	-13776
▁challenged	-13777
▁berm	-13778
▁yosh	-13779
▁claire	-13780
▁observations	-13781
▁gior	-13782
▁gods	-13783
▁dental	-13784
cylinder	-13785
iability	-13786
▁baldwin	-13787
dh	-13788
▁viz	-13789
▁tide	-13790
▁hague	-13791
▁petition	-13792
▁attempting	-13793
▁redistribut	-13794
▁gardner	-13795
▁arrow	-13796
▁counted	-13797
brother	-13798
▁judo	-13799
▁pune	-13800
▁migrated	-13801
▁gim	-13802
▁ellip	-13803
▁duration	-13804
anor	-13805
▁olsz	-13806
▁blair	-13807
▁gloss	-13808
▁theolog	-13809
▁declaration	-13810
▁mayo	-13811
▁unionist	-13812
▁tongue	-13813
▁collapse	-13814
toire	-13815
▁waves	-13816
▁operas	-13817
▁daytime	-13818
▁pilgrim	-13819
▁derek	-13820
anson	-13821
▁periodical	-13822
otti	-13823
▁carab	-13824
▁000000	-13825
▁pt	-13826
berra	-13827
▁boyd	-13828
▁hairs	-13829
▁leis	-13830
▁basque	-13831
▁helena	-13832
cp	-13833
▁tajik	-13834
aired	-13835
.).	-13836
▁telenov	-13837
▁piedmont	-13838
▁experiments	-13839
askie	-13840
branded	-13841
▁ting	-13842
▁catalan	-13843
▁pounds	-13844
▁develops	-13845
▁columnist	-13846
▁uzbekistan	-13847
atas	-13848
echn	-13849
annah	-13850
▁drake	-13851
ende	-13852
▁decommissioned	-13853
▁piz	-13854
▁refugees	-13855
▁identification	-13856
▁ire	-13857
▁geology	-13858
anka	-13859
even	-13860
▁saves	-13861
▁cretaceous	-13862
arez	-13863
▁isf	-13864
▁nottinghamshire	-13865
▁barony	-13866
▁celebrities	-13867
yang	-13868
igrap	-13869
apuram	-13870
▁flemish	-13871
▁roma	-13872
spring	-13873
▁spanning	-13874
gol	-13875
▁landmarks	-13876
▁intens	-13877
aneous	-13878
▁layers	-13879
▁reverend	-13880
wear	-13881
▁gathered	-13882
▁lorenzo	-13883
▁psychological	-13884
▁nobel	-13885
▁enemies	-13886
▁hardcore	-13887
▁00.00%.	-13888
▁corners	-13889
▁acknowled	-13890
ène	-13891
▁surin	-13892
▁scouts	-13893
▁valleys	-13894
té	-13895
▁sev	-13896
▁somalia	-13897
▁gum	-13898
▁labr	-13899
▁authen	-13900
araj	-13901
▁hesse	-13902
▁fewer	-13903
transferase	-13904
▁documentaries	-13905
hav	-13906
tics	-13907
greek	-13908
dimensional	-13909
▁diana	-13910
▁rodrig	-13911
▁consortium	-13912
▁klein	-13913
▁newark	-13914
▁marvel	-13915
him	-13916
▁ceylon	-13917
▁averaged	-13918
ryn	-13919
▁distinguish	-13920
eaux	-13921
▁geoffrey	-13922
▁presenting	-13923
▁hydroelectric	-13924
/000	-13925
atri	-13926
▁bots	-13927
▁harmony	-13928
▁borne	-13929
▁answer	-13930
▁profit	-13931
▁sue	-13932
▁aest	-13933
▁tavern	-13934
▁mohamed	-13935
▁downstream	-13936
▁binding	-13937
mis	-13938
india	-13939
▁vaugh	-13940
▁mongol	-13941
▁expanding	-13942
▁congresses	-13943
imeter	-13944
urities	-13945
▁departed	-13946
etr	-13947
pes	-13948
▁timothy	-13949
▁rai	-13950
ipa	-13951
▁feast	-13952
▁solicitor	-13953
igu	-13954
▁toler	-13955
achy	-13956
▁fever	-13957
antha	-13958
▁pist	-13959
▁munster	-13960
▁reforms	-13961
lab	-13962
small	-13963
▁examin	-13964
icol	-13965
▁wakefield	-13966
▁nue	-13967
▁dhaka	-13968
erick	-13969
▁stras	-13970
gp	-13971
urd	-13972
apoel	-13973
▁allocated	-13974
▁designers	-13975
onduct	-13976
▁balls	-13977
▁vish	-13978
▁maintaining	-13979
▁cement	-13980
▁freeman	-13981
▁persu	-13982
▁cliffs	-13983
▁sq	-13984
ucer	-13985
▁constituent	-13986
grey	-13987
▁à	-13988
vine	-13989
▁kuy	-13990
▁nowadays	-13991
ipedia	-13992
▁loves	-13993
▁touchdowns	-13994
erville	-13995
▁remarkable	-13996
▁neighborhoods	-13997
▁feud	-13998
▁humph	-13999
alypt	-14000
▁ribbon	-14001
▁pastoral	-14002
▁wong	-14003
▁kuala	-14004
▁aggress	-14005
▁thirteenth	-14006
▁monitoring	-14007
▁miz	-14008
▁engrav	-14009
orus	-14010
▁podlaskie	-14011
▁romanesque	-14012
▁tonnes	-14013
stal	-14014
▁motif	-14015
▁forbes	-14016
▁colombo	-14017
▁delayed	-14018
▁politically	-14019
▁kost	-14020
▁dixon	-14021
▁arbore	-14022
▁lup	-14023
▁jing	-14024
▁sharks	-14025
▁originating	-14026
▁jh	-14027
▁dirt	-14028
▁vista	-14029
icultural	-14030
braltar	-14031
▁prussian	-14032
▁discovers	-14033
yellow	-14034
▁qualifier	-14035
▁provisional	-14036
iary	-14037
▁clem	-14038
▁trustee	-14039
▁believes	-14040
▁synonym	-14041
▁naturally	-14042
▁lü	-14043
▁straw	-14044
▁planted	-14045
▁obtaining	-14046
dl	-14047
▁brut	-14048
▁convert	-14049
▁canberra	-14050
▁wei	-14051
▁raid	-14052
▁lineback	-14053
took	-14054
▁myr	-14055
▁dunn	-14056
ópez	-14057
▁obst	-14058
▁environ	-14059
▁circa	-14060
guard	-14061
▁ae	-14062
▁aspect	-14063
▁elisabeth	-14064
▁smoke	-14065
ucci	-14066
eling	-14067
▁dell	-14068
▁regent	-14069
▁lease	-14070
uchess	-14071
▁showc	-14072
▁substance	-14073
▁antib	-14074
log	-14075
edge	-14076
iker	-14077
▁xv	-14078
sport	-14079
▁gros	-14080
▁devils	-14081
▁brandon	-14082
▁geelong	-14083
asu	-14084
▁ferguson	-14085
▁finalists	-14086
▁supermarket	-14087
aleh	-14088
▁ely	-14089
neum	-14090
▁stepped	-14091
bis	-14092
▁bulls	-14093
▁shrew	-14094
▁hain	-14095
▁warmian	-14096
▁unexpected	-14097
ishers	-14098
colon	-14099
▁telescope	-14100
masurian	-14101
▁philosophical	-14102
▁talking	-14103
▁warehouse	-14104
▁nab	-14105
▁monica	-14106
▁confusion	-14107
▁powder	-14108
held	-14109
odon	-14110
▁humid	-14111
▁satir	-14112
▁reggae	-14113
▁copyright	-14114
če	-14115
▁signals	-14116
▁carlisle	-14117
neill	-14118
▁lucky	-14119
▁gathering	-14120
íg	-14121
ukh	-14122
▁wad	-14123
▁hapoel	-14124
▁matric	-14125
fourth	-14126
▁salisbury	-14127
▁zü	-14128
▁ampl	-14129
▁heidel	-14130
▁chemist	-14131
▁contracted	-14132
unit	-14133
▁bulk	-14134
▁sage	-14135
▁agnes	-14136
▁sworn	-14137
▁forever	-14138
▁shortened	-14139
▁combines	-14140
bear	-14141
▁breaststroke	-14142
show	-14143
▁reducing	-14144
mem	-14145
▁diab	-14146
▁tart	-14147
▁drove	-14148
▁allegedly	-14149
▁evergreen	-14150
▁lump	-14151
▁contr	-14152
▁ethics	-14153
▁midnight	-14154
▁destinations	-14155
▁equation	-14156
▁freelance	-14157
▁vow	-14158
quest	-14159
▁llan	-14160
▁quoted	-14161
▁panc	-14162
▁salon	-14163
▁darwin	-14164
yria	-14165
▁glob	-14166
▁geneal	-14167
wf	-14168
▁tips	-14169
▁encourage	-14170
econom	-14171
open	-14172
▁artifacts	-14173
raine	-14174
▁dmit	-14175
▁conceived	-14176
▁pocket	-14177
▁irrigation	-14178
▁hick	-14179
▁bonn	-14180
▁contribute	-14181
▁institutes	-14182
▁accommodation	-14183
▁presum	-14184
▁zan	-14185
▁chir	-14186
▁poles	-14187
▁bahrain	-14188
▁teenage	-14189
▁pioneers	-14190
▁lent	-14191
yne	-14192
iade	-14193
▁dio	-14194
▁aunt	-14195
agara	-14196
▁leic	-14197
▁marse	-14198
italian	-14199
▁linking	-14200
git	-14201
jing	-14202
▁bian	-14203
▁rené	-14204
▁prove	-14205
elles	-14206
▁priory	-14207
mich	-14208
▁antio	-14209
▁breakfast	-14210
since	-14211
headed	-14212
jak	-14213
ayam	-14214
▁investments	-14215
▁ibrahim	-14216
rn	-14217
▁fier	-14218
▁diffic	-14219
▁gazette	-14220
▁environments	-14221
▁berth	-14222
▁griffin	-14223
▁violet	-14224
▁gibraltar	-14225
▁garcia	-14226
..."	-14227
▁dew	-14228
klenburg	-14229
▁payment	-14230
▁commented	-14231
endon	-14232
▁unfortunately	-14233
▁metac	-14234
pri	-14235
cler	-14236
▁borrow	-14237
▁hassan	-14238
aid	-14239
▁wen	-14240
▁entom	-14241
▁crashed	-14242
▁cafe	-14243
▁outlets	-14244
▁mang	-14245
▁midway	-14246
▁demonstrated	-14247
▁sams	-14248
eters	-14249
db	-14250
syn	-14251
▁razavi	-14252
▁ez	-14253
▁amé	-14254
angana	-14255
▁benin	-14256
▁melan	-14257
▁freshman	-14258
▁commemorate	-14259
uly	-14260
▁bri	-14261
▁imposs	-14262
▁lindsay	-14263
▁fuselage	-14264
too	-14265
▁tomas	-14266
▁zurich	-14267
▁prospect	-14268
▁algorithm	-14269
▁participant	-14270
eye	-14271
▁genoa	-14272
▁rotation	-14273
"",	-14274
▁0".	-14275
▁hawk	-14276
▁trick	-14277
▁zap	-14278
rium	-14279
▁leicestershire	-14280
▁hew	-14281
▁breaks	-14282
▁interrupted	-14283
▁hof	-14284
▁bess	-14285
▁lever	-14286
▁flet	-14287
▁halt	-14288
▁xavier	-14289
orio	-14290
clair	-14291
▁pard	-14292
▁magnus	-14293
omore	-14294
itudinal	-14295
ongo	-14296
closed	-14297
eka	-14298
▁motto	-14299
eyn	-14300
▁ses	-14301
▁falcons	-14302
▁wn	-14303
hee	-14304
▁eps	-14305
▁deeply	-14306
▁turkmen	-14307
▁colleagues	-14308
▁camping	-14309
▁winston	-14310
full	-14311
▁iber	-14312
▁wigan	-14313
▁unve	-14314
▁schles	-14315
▁striking	-14316
▁breakthrough	-14317
chan	-14318
▁naked	-14319
▁clarence	-14320
▁radiation	-14321
▁abdomen	-14322
▁retreat	-14323
lot	-14324
avar	-14325
orders	-14326
▁lightning	-14327
kat	-14328
▁chant	-14329
▁tender	-14330
▁uruguayan	-14331
▁marshes	-14332
▁aids	-14333
▁laos	-14334
aping	-14335
▁laps	-14336
▁meridian	-14337
▁marking	-14338
bod	-14339
▁removal	-14340
▁knighted	-14341
▁rc	-14342
▁lone	-14343
▁secular	-14344
▁suspected	-14345
▁lots	-14346
forming	-14347
▁conrad	-14348
▁immigrant	-14349
▁bonds	-14350
▁kinds	-14351
section	-14352
▁shaft	-14353
▁cowboys	-14354
▁highlighted	-14355
▁lb	-14356
tense	-14357
▁espa	-14358
▁broncos	-14359
tech	-14360
soccer	-14361
▁dispos	-14362
▁worlds	-14363
▁encyclopedia	-14364
assis	-14365
▁pottery	-14366
▁provision	-14367
▁erie	-14368
▁sindh	-14369
▁condem	-14370
▁monotypic	-14371
chy	-14372
▁acre	-14373
cane	-14374
▁pays	-14375
▁accompanying	-14376
▁refurb	-14377
tti	-14378
▁faster	-14379
▁answ	-14380
▁baku	-14381
▁crom	-14382
▁indexed	-14383
▁priests	-14384
▁possibility	-14385
▁pie	-14386
▁mats	-14387
▁swansea	-14388
▁wrocław	-14389
▁assassin	-14390
▁situations	-14391
rae	-14392
▁acet	-14393
▁nay	-14394
astered	-14395
arf	-14396
▁dia	-14397
▁sten	-14398
adio	-14399
▁goa	-14400
hardt	-14401
▁000%	-14402
▁backup	-14403
▁linguistics	-14404
▁cô	-14405
ylon	-14406
▁fairy	-14407
▁sherman	-14408
ahar	-14409
▁laud	-14410
▁maid	-14411
screen	-14412
▁00.00,	-14413
enko	-14414
▁thé	-14415
-000"	-14416
omial	-14417
▁rink	-14418
▁00).	-14419
▁shiv	-14420
▁tunes	-14421
▁surprise	-14422
▁temperate	-14423
▁engagement	-14424
▁retrie	-14425
▁yearly	-14426
▁napoleon	-14427
▁mammals	-14428
▁warfare	-14429
▁"[	-14430
▁aston	-14431
▁survival	-14432
mia	-14433
▁wi	-14434
▁statewide	-14435
ilde	-14436
áz	-14437
▁tubes	-14438
▁guangzhou	-14439
isal	-14440
▁upstream	-14441
otive	-14442
ucn	-14443
itely	-14444
▁citing	-14445
▁millennium	-14446
ographically	-14447
▁consumption	-14448
enary	-14449
drop	-14450
▁sympt	-14451
kam	-14452
ogie	-14453
▁incl	-14454
▁cyrillic	-14455
▁difficulty	-14456
ibo	-14457
bund	-14458
▁cruise	-14459
▁seeded	-14460
pack	-14461
▁riga	-14462
▁cors	-14463
▁barrow	-14464
ented	-14465
▁dion	-14466
▁calcutta	-14467
▁heidelberg	-14468
▁divine	-14469
▁approaches	-14470
hend	-14471
▁fow	-14472
▁slate	-14473
▁académ	-14474
▁zu	-14475
▁lópez	-14476
uria	-14477
arians	-14478
▁himal	-14479
▁libya	-14480
▁wikipedia	-14481
▁pierce	-14482
▁android	-14483
▁dependent	-14484
▁judg	-14485
rology	-14486
yscrap	-14487
indi	-14488
otta	-14489
arius	-14490
▁(00.0/	-14491
▁brittany	-14492
▁clusters	-14493
▁labrador	-14494
zed	-14495
lech	-14496
sein	-14497
▁eva	-14498
▁arbit	-14499
xico	-14500
▁trend	-14501
▁pietro	-14502
▁finishes	-14503
▁deportivo	-14504
nn	-14505
▁lobby	-14506
▁electr	-14507
▁speaks	-14508
▁redevelop	-14509
take	-14510
▁warning	-14511
▁ef	-14512
▁cano	-14513
▁guided	-14514
▁achieving	-14515
▁grandmother	-14516
obe	-14517
atore	-14518
▁leisure	-14519
▁trucks	-14520
▁monmouth	-14521
▁lans	-14522
▁outsk	-14523
▁collaborative	-14524
▁eden	-14525
▁amp	-14526
▁kö	-14527
▁varying	-14528
▁waterloo	-14529
▁investigations	-14530
▁bulb	-14531
▁exchang	-14532
▁thermal	-14533
▁mecklenburg	-14534
ogist	-14535
▁aragon	-14536
▁denotes	-14537
swe	-14538
▁sear	-14539
▁*	-14540
▁slavic	-14541
wil	-14542
▁agree	-14543
▁caledonia	-14544
▁frig	-14545
▁leased	-14546
▁faction	-14547
▁carni	-14548
▁automotive	-14549
omas	-14550
▁bij	-14551
▁estimate	-14552
▁mari	-14553
▁hul	-14554
▁johannesburg	-14555
xx	-14556
▁nerve	-14557
▁cds	-14558
▁rendered	-14559
anj	-14560
eight	-14561
▁coss	-14562
▁fernand	-14563
▁fing	-14564
▁knows	-14565
▁nominees	-14566
▁pf	-14567
▁alk	-14568
▁suffused	-14569
▁autobiography	-14570
▁hansen	-14571
▁verses	-14572
▁consistent	-14573
anas	-14574
▁flanders	-14575
arth	-14576
▁tug	-14577
▁wig	-14578
▁blank	-14579
▁generic	-14580
▁limerick	-14581
qa	-14582
▁gle	-14583
▁theatres	-14584
▁monaco	-14585
▁alderman	-14586
▁có	-14587
▁naw	-14588
▁shu	-14589
▁superfamily	-14590
▁vick	-14591
lining	-14592
▁golfer	-14593
▁churchill	-14594
▁hertfordshire	-14595
.),	-14596
kom	-14597
oxy	-14598
▁applic	-14599
▁cancel	-14600
▁intervent	-14601
▁vr	-14602
source	-14603
▁mountainous	-14604
00000	-14605
▁currency	-14606
▁homeland	-14607
▁quarters	-14608
▁authentic	-14609
▁ist	-14610
▁settler	-14611
▁atomic	-14612
ophoridae	-14613
▁violinist	-14614
ße	-14615
undi	-14616
▁ayr	-14617
▁hail	-14618
▁divide	-14619
▁disqual	-14620
sie	-14621
▁sach	-14622
▁severely	-14623
▁halls	-14624
▁explore	-14625
▁physicians	-14626
▁siding	-14627
▁turnout	-14628
▁pasc	-14629
▁sunk	-14630
amation	-14631
▁shipyard	-14632
▁machinery	-14633
▁boul	-14634
▁recognize	-14635
anus	-14636
yses	-14637
▁mvp	-14638
▁hiatus	-14639
director	-14640
▁jeffrey	-14641
▁intercept	-14642
>*</	-14643
▁regina	-14644
wię	-14645
▁valle	-14646
▁).	-14647
▁shirley	-14648
▁folklore	-14649
authored	-14650
▁concess	-14651
▁rows	-14652
▁perce	-14653
▁barracks	-14654
▁jenkins	-14655
▁fet	-14656
▁mps	-14657
▁spo	-14658
otrop	-14659
▁lagos	-14660
british	-14661
▁fragments	-14662
▁cathol	-14663
▁empress	-14664
▁nonprofit	-14665
▁evacu	-14666
2)	-14667
marie	-14668
antan	-14669
▁symbols	-14670
▁phenomenon	-14671
rition	-14672
▁maxwell	-14673
▁flore	-14674
▁circles	-14675
unga	-14676
bright	-14677
▁alley	-14678
▁crane	-14679
▁liberia	-14680
▁loosely	-14681
▁laboratories	-14682
▁(00.0000	-14683
▁dialects	-14684
▁busy	-14685
▁malm	-14686
▁highlights	-14687
comb	-14688
▁dissert	-14689
▁anthropology	-14690
▁institutional	-14691
ikos	-14692
▁wise	-14693
dwell	-14694
etian	-14695
▁branded	-14696
▁attained	-14697
▁outskirts	-14698
optera	-14699
achal	-14700
▁walton	-14701
▁cic	-14702
-000)	-14703
▁skeleton	-14704
▁nationale	-14705
oran	-14706
itious	-14707
onn	-14708
▁nep	-14709
▁xin	-14710
▁hyde	-14711
▁kurd	-14712
▁ceremonies	-14713
▁juniors	-14714
ahi	-14715
▁ave	-14716
▁cubs	-14717
▁aristocr	-14718
▁fletcher	-14719
▁skyscrap	-14720
íguez	-14721
▁amphib	-14722
▁seasonal	-14723
▁fisheries	-14724
▁0×	-14725
ships	-14726
▁dancers	-14727
▁scholarly	-14728
▁jup	-14729
▁turf	-14730
uren	-14731
▁manifest	-14732
▁ashley	-14733
▁prepare	-14734
▁absolute	-14735
▁botany	-14736
▁sustained	-14737
▁miners	-14738
▁chern	-14739
▁poorly	-14740
▁spells	-14741
▁wester	-14742
▁lecture	-14743
▁disabled	-14744
▁advancing	-14745
▁schne	-14746
▁biz	-14747
▁percy	-14748
▁impression	-14749
▁specialised	-14750
leaf	-14751
▁rca	-14752
▁gest	-14753
▁terrace	-14754
itational	-14755
▁improving	-14756
▁directions	-14757
jas	-14758
jav	-14759
▁walks	-14760
▁whitney	-14761
coll	-14762
▁lus	-14763
▁abbas	-14764
▁vulner	-14765
sq	-14766
gbt	-14767
idia	-14768
mara	-14769
aternity	-14770
▁cultivation	-14771
leen	-14772
▁hawaiian	-14773
jon	-14774
▁sü	-14775
lich	-14776
▁asph	-14777
▁urdu	-14778
▁kenyan	-14779
they	-14780
▁bacterium	-14781
▁ved	-14782
yards	-14783
▁repr	-14784
rovich	-14785
▁repertoire	-14786
▁preparatory	-14787
hua	-14788
▁chev	-14789
▁generate	-14790
cala	-14791
sham	-14792
▁wax	-14793
▁papal	-14794
▁sketch	-14795
▁devi	-14796
▁spike	-14797
▁tipper	-14798
▁transferring	-14799
▁rehabilitation	-14800
▁cunning	-14801
thon	-14802
range	-14803
ystok	-14804
▁moses	-14805
ependent	-14806
▁ssr	-14807
oding	-14808
colleg	-14809
▁torres	-14810
▁wildcats	-14811
▁rodríguez	-14812
▁prey	-14813
▁tand	-14814
▁pest	-14815
▁thur	-14816
▁worc	-14817
▁haunt	-14818
leh	-14819
jean	-14820
onga	-14821
yi	-14822
▁flute	-14823
▁tasks	-14824
pec	-14825
▁combining	-14826
▁drains	-14827
▁calvin	-14828
▁crust	-14829
atinate	-14830
▁0000."	-14831
gm	-14832
isse	-14833
icans	-14834
▁barth	-14835
▁europa	-14836
onyms	-14837
▁stall	-14838
eningrad	-14839
▁benson	-14840
▁mound	-14841
▁tooth	-14842
etz	-14843
insk	-14844
▁duff	-14845
▁italianate	-14846
kon	-14847
oks	-14848
▁dys	-14849
▁randy	-14850
▁urs	-14851
▁stripes	-14852
▁utrecht	-14853
cup	-14854
iaa	-14855
▁000).	-14856
▁shepherd	-14857
umont	-14858
▁bowled	-14859
▁fencing	-14860
▁treasure	-14861
entric	-14862
saturday	-14863
▁vector	-14864
▁olsztyn	-14865
▁nicaragua	-14866
▁kj	-14867
▁lille	-14868
▁chains	-14869
▁threats	-14870
▁hog	-14871
categ	-14872
▁casey	-14873
▁seeks	-14874
▁campuses	-14875
▁enable	-14876
▁aperture	-14877
▁dimensions	-14878
▁kub	-14879
▁pretty	-14880
▁teenager	-14881
gill	-14882
▁dorm	-14883
naissance	-14884
▁aure	-14885
▁riley	-14886
▁kermanshah	-14887
▁rwanda	-14888
▁devot	-14889
▁remixed	-14890
▁specification	-14891
▁scots	-14892
▁lambert	-14893
employ	-14894
▁blade	-14895
▁yankees	-14896
▁moroccan	-14897
▁assignment	-14898
pomer	-14899
▁sequences	-14900
(0)	-14901
▁obama	-14902
▁dramas	-14903
▁hare	-14904
▁miy	-14905
▁floyd	-14906
▁lagoon	-14907
▁worcestershire	-14908
opic	-14909
▁keeper	-14910
▁juvenile	-14911
▁greenwich	-14912
-0)	-14913
▁('	-14914
▁protests	-14915
wr	-14916
▁sio	-14917
▁zürich	-14918
▁trademark	-14919
ан	-14920
▁scre	-14921
teries	-14922
▁holly	-14923
▁medall	-14924
▁sectors	-14925
▁syll	-14926
▁resur	-14927
▁pitt	-14928
▁visa	-14929
▁elephant	-14930
sb	-14931
▁ald	-14932
ophys	-14933
▁martí	-14934
▁surrender	-14935
▁proven	-14936
ylum	-14937
▁esk	-14938
▁basilica	-14939
▁embed	-14940
▁bomber	-14941
▁sophie	-14942
▁denomination	-14943
▁tanks	-14944
▁longitudinal	-14945
▁omar	-14946
▁tucker	-14947
map	-14948
▁szczecin	-14949
▁ventures	-14950
▁proportional	-14951
call	-14952
▁terminated	-14953
ière	-14954
▁vag	-14955
teacher	-14956
▁binary	-14957
▁janata	-14958
▁regulatory	-14959
▁wheelchair	-14960
▁waived	-14961
▁phillip	-14962
▁rebounds	-14963
▁explosion	-14964
▁cassette	-14965
[...]
